/**
  ******************************************************************************
  * @file    network_data_params.c
  * @author  AST Embedded Analytics Research Platform
  * @date    2026-07-14T10:24:23-0600
  * @brief   AI Tool Automatic Code Generator for Embedded NN computing
  ******************************************************************************
  * Copyright (c) 2026 STMicroelectronics.
  * All rights reserved.
  *
  * This software is licensed under terms that can be found in the LICENSE file
  * in the root directory of this software component.
  * If no LICENSE file comes with this software, it is provided AS-IS.
  ******************************************************************************
  */

#include "network_data_params.h"


/**  Activations Section  ****************************************************/
ai_handle g_network_activations_table[1 + 2] = {
  AI_HANDLE_PTR(AI_MAGIC_MARKER),
  AI_HANDLE_PTR(NULL),
  AI_HANDLE_PTR(AI_MAGIC_MARKER),
};




/**  Weights Section  ********************************************************/
AI_ALIGNED(32)
const ai_u64 s_network_weights_array_u64[16642] = {
  0xbdde65d73c960d32U, 0x3d6bcb973d9b6918U, 0xbde113cabc40ec64U, 0xbdc8f63e3de113caU,
  0xbddbb7e4be0cac5fU, 0x3c6bcb973db8e28bU, 0xbdc0ec643ccba431U, 0xbe2a25d13db8e28bU,
  0x3d98bb25bbd65bfeU, 0xbda8ced8bcb63498U, 0xbe0b5565bd834b8bU, 0xbd90b14b3d88a772U,
  0x3c009d983d5bb7e4U, 0x3ccba4313dc0ec64U, 0xbe160d323d98bb25U, 0xbd160d323d6113caU,
  0x3de113cabd7bdf4aU, 0x3d8e03583cf68364U, 0xbc960d323cebcb97U, 0xbde91da4bde3c1beU,
  0x3e0e0358bd71277dU, 0xbc2b7ccbbd6bcb97U, 0xbd666fb1bdc8f63eU, 0x3debcb97bc8b5565U,
  0x3df1277d3d85f97fU, 0xbe2372f1bcf68364U, 0xbe0b5565bd7bdf4aU, 0xbbd65bfe3da8ced8U,
  0x3d46484bbd935f3eU, 0xbd960d32bdebcb97U, 0xbcd65bfe3d2b7ccbU, 0xbd510017bd009d98U,
  0x3d4c68483c84dd62U, 0x3bf549f0bd6b1186U, 0x3db7f7743de0d91cU, 0xbd96c01c3d5bbce7U,
  0xbda0f8863dd6a0b2U, 0x3d60d91c3dd1847dU, 0xbe223f933e105cd9U, 0xbd1e6a6bbc2386a0U,
  0x3dd1847dbd422fdeU, 0x3e06246f3bcc6848U, 0xbd143201bd89f997U, 0x3dff825a3df7d80aU,
  0x3cf549f0bcb7f774U, 0x3de8836cbdadbf0aU, 0xbce0d91c3de0d91cU, 0xbd474c13bdeb1186U,
  0xbc0f15cc3de0d91cU, 0xbdd1847dbd824f48U, 0xbba386a0bce0d91cU, 0x3d422fdebcc22fdeU,
  0xbdc74c13bdcef662U, 0x3e105cd93db5695aU, 0xbdd412983ca386a0U, 0xbdb04d24bda8a2d5U,
  0xbe0f15cc3d32db3fU, 0x3d2386a0bcadbf0aU, 0xbc37f774bce0d91cU, 0x3dcef6623da0f886U,
  0xbd89f997bdfcf440U, 0xbd0f15ccbd8f15ccU, 0xbdd412983dba858eU, 0x3ded9fa03cf549f0U,
  0x3d3e618c3dfb668eU, 0x3ce08d503d815c8aU, 0xbe09e77bbcd6c9f3U, 0x3e0776a33e17541aU,
  0xbdbbf0b53e17541aU, 0x3da869fcbd741408U, 0x3dd6c9f33bea50acU, 0x3ddbaba1bd863e38U,
  0xbd83cd61bd6f325aU, 0xbe063e383dc5b411U, 0x3d4d06963e17541aU, 0x3d741408bdd4591cU,
  0x3d97541a00000000U, 0x3d349e2f3df1a331U, 0x3b9c35c8bd88af0fU, 0xbe0b1fe63d25f924U,
  0x3d0d90bd3def325aU, 0xbcea50ac3e1afd5cU, 0x3c88af0fbddbaba1U, 0x3dd4591cbdf1a331U,
  0x3dbbf0b5bd9c35c8U, 0xbd815c8a3dca95bfU, 0x3d3e618c3da3884dU, 0xbe0294f53d900194U,
  0xbe161bae3dde1c78U, 0xbdd6c9f3bdca95bfU, 0x3ce08d50bb9c35c8U, 0xbdb97fde3e0505ccU,
  0x3b1c35c8bd56c9f3U, 0xbdaadad33b1c35c8U, 0x3cfdd7653e0505ccU, 0x3da5f924bda3884dU,
  0xbd88ebb8be045b54U, 0x3db4476e3e021322U, 0x3dad6ed83b120c80U, 0xbe10e867bd969ce4U,
  0x3bb68fa03ddb12c0U, 0xbc920c80bcd1f1f8U, 0xbdbfb068bdeb0c1eU, 0x3d71e4b43d4440ccU,
  0xbdf67518bcc8d130U, 0xbd9454b23d0d7c1cU, 0xbe06a3863d71e4b4U, 0xbdc688febdb4476eU,
  0x3cb68fa0bdf42ce6U, 0x3d9b2d483e07c79fU, 0x3dbb20043d7b057cU, 0x3dd8ca8e3b920c80U,
  0xbd4440cc3c88ebb8U, 0x3d8213223dcd6194U, 0xbdf42ce63df42ce6U, 0xbd28de74bd88ebb8U,
  0x3dab26a6bd1b2d48U, 0x3ca44e10bd71e4b4U, 0x3d8fc44ebde43388U, 0x3de67bba3dbfb068U,
  0xbca44e10bd244e10U, 0x3df1e4b4bd7f95e0U, 0xbd244e10bdb8d7d2U, 0xbd31ff3c3dd43a2aU,
  0x3c48d130bd9454b2U, 0x3dc8d1303cdb12c0U, 0xbdfd4dae3d3b2004U, 0x3b920c803d56825cU,
  0xbccf6b9cbd07462eU, 0x3de174f83cb45d93U, 0x3d58704abd8bc885U, 0xbe0f2a463e01a342U,
  0x3d6174f8bd8082acU, 0x3c994f8abd970e5eU, 0xbd2254383db45d93U, 0xbddab1753ccf6b9cU,
  0xbde174f83d9dd1e1U, 0x3d970e5ebc87462eU, 0xbdfec42cbd5cf2a1U, 0xbde3b6233deefbfcU,
  0x3e03e46d3dd1acc8U, 0xbe02c3d73d2fdb3cU, 0x3ca254383de5f74fU, 0x3dea79a6bdbd6241U,
  0xbd9b90b53d94cd33U, 0x3b904adcbd0bc885U, 0x3de5f74f3decbad1U, 0xbdcd2a713d225438U,
  0x3dea79a6bdb21c68U, 0x3d737e53bd850503U, 0xbd58704abdbb2115U, 0x3d58704a3d14cd33U,
  0xbdfa41d6bbd8704aU, 0xbd6efbfcbd4666eeU, 0xbc345d933d02c3d7U, 0x3db8dfea3d65f74fU,
  0x3dcd2a713d89875aU, 0xbc87462ebd14cd33U, 0xbb104adcbd8e09b1U, 0xbda0130c3d65f74fU,
  0xbd5f097c3c84df86U, 0xbe04df86bc04df86U, 0xbd90bc9fbd2ad63eU, 0x3ddcaa103cc74f49U,
  0x3c76c3afbda876d3U, 0xbddf097c3db6b358U, 0x3b17dae2bce3c853U, 0xbcaad63e3d261767U,
  0x3da876d3bd957b76U, 0x3dda4aa5bd90bc9fU, 0xbd899e5d3d6d4601U, 0x3dcc0e203dad35aaU,
  0x3d8bfdc8bd68872aU, 0xbe060f3c3cbdd19aU, 0xbe099e5dbd0020afU, 0x3e02801abd8020afU,
  0x3d4c0e203daf9515U, 0x3cbdd19abc97dae2U, 0x3c8e5d34bdefa56dU, 0xbd899e5dbd7204d8U,
  0xbdc03106bd8e5d34U, 0x3d215890bdcc0e20U, 0xbdfde1f2be16ab2cU, 0xbdc74f493ced4601U,
  0xba97dae2bdc9aeb4U, 0xbcf6c3afbd215890U, 0x3dc03106bd474f49U, 0x3d4c0e203da876d3U,
  0x3d131c0bbd76c3afU, 0x3d474f493c97dae2U, 0x3da15890bda3b7fcU, 0x3d2f95153d3dd19aU,
  0x3db3bf7c3d6de6d9U, 0xbcf3303e3aa92cb1U, 0x3cb3bf7c3d6de6d9U, 0xbd8c1903bd1e99e6U,
  0xbd8ebdb5bcde0aa8U, 0xbe02d891be14071bU, 0x3dbe52473d916268U, 0x3c5377dd3da3e34bU,
  0xbc9e99e63d2e7617U, 0x3d0974503dbe5247U, 0xbdae76173d8ebdb5U, 0x3dc6405fbcfdc30aU,
  0xbd86cf9dbdcb89c5U, 0x3db3bf7c3deb4226U, 0xbe27da58bda3e34bU, 0xbe0ac6a93de5f8c1U,
  0xbd439bad3dde0aa8U, 0xbdd8c143bdd0d32aU, 0xbdb6642fbcc8e512U, 0x3df879a43df3303eU,
  0x3e0ebdb53dabd164U, 0x3c5377ddbd842aeaU, 0xbde3540ebd63540eU, 0x3d86cf9dbd195080U,
  0x3dd61c90bc14071bU, 0x3d0ebdb5bd73303eU, 0x3e1e99e63d96abceU, 0xbc7dc30a3d1e99e6U,
  0xbc5377ddbcde0aa8U, 0xbe02d8913c689d73U, 0x3d9e99e63d6de6d9U, 0xbcb3bf7cbdd61c90U,
  0xbdac3d45bdf03a83U, 0xbd232c933d42e704U, 0xbd232c93bd87fa7aU, 0xbd8ec7003dedf656U,
  0xbd6bb2293d9c600dU, 0xbd74c2dc3dd990c4U, 0x3df70709bca32c93U, 0x3c110b2dbcbe5eabU,
  0x3c354df83df70709U, 0xbd6bb2293bb54df8U, 0x3d07fa7abd85b64dU, 0xbd30c59fbe05b64dU,
  0xbdd2c43dbc5990c4U, 0xbdf94b35bdbe5eabU, 0xbd476f5ebe0fe917U, 0xbce2a1763e06d864U,
  0x3cfdd38fbc87fa7aU, 0x3d0372213de729d0U, 0x3d8c82d4be0a3ea7U, 0xbdc0a2d83d8ec700U,
  0xbdb792253cfdd38fU, 0x3d6729d03db54df8U, 0x3df4c2dcbcfdd38fU, 0xbdce3be4be000bdeU,
  0x3d97d7b33db79225U, 0xbcf4c2dcbd74c2dcU, 0x3c232c933d8a3ea7U, 0x3d9c600d3da9f919U,
  0x3e091c913d8c82d4U, 0x3e06d864bd476f5eU, 0x3d27b4ecbbb54df8U, 0xbd07fa7abddbd4f0U,
  0x3df6c2e3bcc78255U, 0xbe1451bc3dd4a27dU, 0x3e1061b0bd478255U, 0x3e0731953d5c8294U,
  0xbda021df3dfea2faU, 0x3dafe20f3da561efU, 0x3e0731953e05e191U, 0xbd1d81d83d9061b0U,
  0xbdbfa23ebda561efU, 0xbddc82943e034189U, 0xbd61c2a4bdf6c2e3U, 0xbd6c42c3bd574284U,
  0xbe073195bdd20275U, 0x3bfc02f23deee2cbU, 0xbda561efbd034189U, 0xbcd202753d1d81d8U,
  0x3bfc02f2bd574284U, 0x3e26b1f33d1d81d8U, 0x3df422dbbc888199U, 0x3d4242463ba801f7U,
  0x3dd74284bd76c2e3U, 0x3d3282163d9ae1d0U, 0xbc3d0236bdafe20fU, 0x3cbd0236bdfea2faU,
  0x3d9d81d83d22c1e7U, 0xbdd74284bda2c1e7U, 0x3deee2cbbda021dfU, 0x3d85e191bdca225dU,
  0xbe05e1913ddc8294U, 0xbdd4a27d3d8dc1a8U, 0xbcb282163d9d81d8U, 0x3dc24246bd9061b0U,
  0xbce0d57c3ccc64fcU, 0x3cb7f47d3d2dbc3dU, 0x3d8c856dbdeb0dbcU, 0xbe07694e3de87facU,
  0xbda8a01dbe04db3eU, 0x3e0f137d3d87694eU, 0xbd8c856d3d5bb95cU, 0xbd2dbc3d3e142f9dU,
  0x3d6b0dbc3e07694eU, 0xbe0dcc75bdbf9eacU, 0xbdc22cbc3e1804b5U, 0x3dcef30c3dbf9eacU,
  0x3e0622463dc748dcU, 0x3d422cbc3d91a18dU, 0x3d6b0dbcbc994bbdU, 0xbde0d57c3c4c64fcU,
  0x3dc4bacc3bcc64fcU, 0x3d28a01d3d422cbcU, 0x3d0f137dbd2dbc3dU, 0x3da383fdbc60d57cU,
  0x3cd69d3cbd2dbc3dU, 0xbd04db3e3c0f137dU, 0x3e105a85bcd69d3cU, 0xbd5bb95c3c7545fcU,
  0x3d87694e3bf545fcU, 0xbdab2e2dbd7f7e3bU, 0x3d84db3e3dd1811cU, 0xbbcc64fc3e223cf5U,
  0xbe039436bd09f75dU, 0xbda0f5ed3b7545fcU, 0xbdf545fcbd89f75dU, 0x3e0c856dbbf545fcU,
  0xbc1ccb363d9a9db8U, 0x3d84d6d4bd807bdaU, 0x3d9ccb363cfc9cbaU, 0x3dc3fe03bd4858fdU,
  0xbd9642be3c82a957U, 0xbcb6ed14bda12630U, 0xbd807bdabc9ccb36U, 0x3d43fe03bc941541U,
  0x3d1ccb36bd82a957U, 0xbded5e4dbd84d6d4U, 0x3d82a9573cfc9cbaU, 0xbda126303da9dc25U,
  0xbde04d5e3c0b5f4cU, 0xbdc1d0863b0b5f4cU, 0x3e0704523ddbf264U, 0xbdb4bf973d84d6d4U,
  0x3e05ed933c627adcU, 0xbd98703bbcae371fU, 0x3e03c0163b8b5f4cU, 0xbe03c0163d98703bU,
  0xbd7841bf3dd10ef2U, 0xbe0931cfbd9a9db8U, 0x3d627adc3e0a488dU, 0x3dfeca373d4858fdU,
  0xbd18703bbc73e6c5U, 0xbd5569ec3dfa6f3dU, 0x3ca5812abd2e371fU, 0xbe019299bdfa6f3dU,
  0x3d1ccb36bcbfa308U, 0x3ddbf2643d8d8cc9U, 0x3d7c9cbabd66d5d6U, 0x3da5812a3db4bf97U,
  0xbc3978f43d4adc4bU, 0xbd9c7e0ebc96b246U, 0x3c8b1ab7bddc3fa2U, 0x3e00f61a3cb978f4U,
  0xbcf36ec03d9c7e0eU, 0xbcdc3fa2be06c1e1U, 0xbd5c3fa23c96b246U, 0xbdb0c749bdd0a812U,
  0xbd3978f4bd5c3fa2U, 0xbd10e67fbdbf44bcU, 0x3db978f43d736ec0U, 0xbda52fb93daafb81U,
  0x3dcadc4b3c7f0650U, 0xbc3978f4bd33ad2cU, 0xbe1259713be7d731U, 0x3d16b2463c7f0650U,
  0x3cc51083bda52fb9U, 0xbd793a883d5c3fa2U, 0x3d90e67f00000000U, 0x3be7d731bbe7d731U,
  0xbd16b246bdfc206cU, 0x3ab978f4bdff0650U, 0x3d7f0650bdb69310U, 0x3d054eefbdb978f4U,
  0xbc8b1ab7be0b1ab7U, 0x3cade1653ddf2586U, 0xbdc22a9fbdf93a88U, 0x3d2de165bdd38df6U,
  0xbd50a812bab978f4U, 0xbe3806023d854eefU, 0xbd6da2f9be13cc62U, 0xbcade165be1b0b1cU,
  0xbdfe47973de30910U, 0xbd59f4383dd0df61U, 0xbca3772a3c7e4797U, 0x3c8838a33dd9f438U,
  0xbd23772a3cf532c0U, 0x3bb5a0da3da5bc60U, 0xbdb1166e3da5bc60U, 0xbd8f0845be102ae0U,
  0xbbd9f438bde54e46U, 0x3dd0df61bd981d1dU, 0xbda801963e05f36dU, 0xbe0838a3bd9eecbfU,
  0xbd8a7dd9bda80196U, 0xbe095b3e3c35a0daU, 0xbd2801963dd569cdU, 0x3dc7ca89bda3772aU,
  0x3d2c8c02bdd7af03U, 0xbc35a0da3d95d7e7U, 0x3d23772a3de7937cU, 0x3e03ae373dee631eU,
  0xbdfc02613da131f4U, 0x3a914d7bbd9eecbfU, 0x3cac8c023ce30910U, 0x3d2c8c02bdaa46ccU,
  0xbddc396e3bd9f438U, 0x3cb5a0dabd630910U, 0x3a914d7bbd47ca89U, 0x3c23772a3d50df61U,
  0xbd2c8c023de30910U, 0xbdee631ebdf532c0U, 0x3e05f36dbd43401dU, 0xbd35a0da3c6c1de8U,
  0x3c702c8abd5226f9U, 0x3d00aa26bde573b2U, 0xbd2b8d883dd00201U, 0x3d2b8d88bd6be29aU,
  0xbcf02c8abcbcb548U, 0x3cd670e93d91d1e6U, 0x3bcddd093d1eafb7U, 0xbda9688fbccddd09U,
  0x3d82cf1ebb893e06U, 0x3e082b8a3d91d1e6U, 0x3de9bda2bd386b58U, 0xbdee07923d702c8aU,
  0xbc702c8abc4ddd09U, 0x3df4767bbdf69b73U, 0xbde129c23dc32431U, 0x3de34eba3cab8d88U,
  0xbd093e06bd22f9a7U, 0xbd11d1e63c702c8aU, 0x3c702c8a3ca2f9a7U, 0xbde9bda2bddf04caU,
  0x3d702c8a3d22f9a7U, 0xbcb42168bcdf04caU, 0xbe00aa26bd893e06U, 0x3da2f9a7bcdf04caU,
  0xbd274397be01bca2U, 0x3d8d87f6be04f416U, 0x3a893e063cf8c06bU, 0x3dba9050bd5abadaU,
  0xbe0606923debe29aU, 0x3ce798aabdf25183U, 0x3d702c8abc2b8d88U, 0x3bab8d88bd82cf1eU,
  0xbd17eb7dbdcf29d9U, 0x3dc15a42bde193f7U, 0x3a9350f5bcef638eU, 0x3d4f29d93d9a38c0U,
  0xbd6193f73dfd3325U, 0xbdccdc95be0a1be6U, 0xbdd3c4603db38aabU, 0x3d3cbfbabd9a38c0U,
  0x3e045abcbd45f4c9U, 0x3d382532bdeac906U, 0x3d585ee83d00e6d6U, 0xbd00e6d6bce62e7fU,
  0xbd21208c3b1350f5U, 0x3deac906bc8a1be6U, 0x3c80e6d6be05815eU, 0xbd4f29d9bbdcf970U,
  0x3d8a1be6bcf8989dU, 0x3dc3a7853a9350f5U, 0x3da36dd0bdc5f4c9U, 0x3dc8420d3e0a1be6U,
  0x3d338aab3d4f29d9U, 0xbdcf29d9bd9350f5U, 0xbde3e13b3da36dd0U, 0xbdef638ebcb82532U,
  0x3dba7276bdaca2dfU, 0x3db38aabbcd3c460U, 0xbd959e39be122a53U, 0x3b9350f5bdc5f4c9U,
  0xbdef638ebdb82532U, 0x3df64b5a3ddaac2cU, 0xbcf8989d3d9c8604U, 0x3d87cea23e00e6d6U,
  0xbd05abf53ddb9a81U, 0x3db7cc713db0a33bU, 0x3cc881f0bdd6d45cU, 0xbde9ecedbd13fe62U,
  0xbdbc92953d85abf5U, 0xbe1069c7bc98c486U, 0x3cbef5a83df83f5aU, 0xbe05abf53de526c9U,
  0xbdb0a33bbe0ba3a2U, 0xbcbef5a83de9ecedU, 0xbdcae5023d30a33bU, 0xbd9fedbc3da4b3e0U,
  0xbd2716f3bde9ecedU, 0xbd9b27983df83f5aU, 0xbdf379363cdb9a81U, 0x3da4b3e0bcd20e38U,
  0x3e00e5d1bdbef5a8U, 0xbe06dd7e3d880f07U, 0xbda250cebd1d8aaaU, 0xbe0cd52cbd0a7219U,
  0x3d4881f03d8f383eU, 0x3d520e38be06dd7eU, 0x3df5dc48bd783f5aU, 0xbdb0a33b3c520e38U,
  0xbd56d45c3cbef5a8U, 0x3cd20e38bcf83f5aU, 0x3c85abf5be119b50U, 0xbdba2f83bddb9a81U,
  0x3e02175a3d05abf5U, 0xbe1792fd3dc3bbccU, 0x3d5b9a81bd43bbccU, 0xbd35695f3df37936U,
  0xbdcaa8a63cfffd74U, 0xbcf552e43d2aa8f8U, 0xbbd553363d2aa8f8U, 0x3d8ffe913d3aa8cfU,
  0x3d9aa9213bd55336U, 0x3de5530dbe1553d9U, 0xbd65530dbd2aa8f8U, 0xbc555336bd7aa82cU,
  0xbdc5535f3c1553d9U, 0x3c9553d93dad539cU, 0xbddd5322be1ffe68U, 0x3baaa8f8be07fea6U,
  0xbdbffe17be0ea93fU, 0xbd1aa9213d9d53c5U, 0xbd8554023deaa855U, 0xbe03feb03daaa8f8U,
  0xbdbaa8cfbe06a954U, 0x3d82a95ebe0ea93fU, 0xbda553b03da7fe54U, 0xbcfffd743dd55336U,
  0x3ded52f9bddd5322U, 0xbd355388be2953a6U, 0x3caaa8f83c2aa8f8U, 0xbdfd52d0bdcffdeeU,
  0xbd7552e43d7aa82cU, 0x3d8ffe913dcffdeeU, 0x3ddaa87ebde2a869U, 0x3deaa855bbd55336U,
  0x3c8aa94a3dd2a892U, 0xbe06a9543dcd534aU, 0xbdb553883d6ffd9dU, 0x3d5aa87e3de5530dU,
  0x3dbf1ed4bdac3e8cU, 0xbca9e284bda7867bU, 0xbd8421f43c62835aU, 0x3d5dcb48be15d438U,
  0xbde2835a3e0097e7U, 0x3d94a633bda9e284U, 0xbd88da06be0a080bU, 0x3d867dfdbdc3d6e6U,
  0xbbbcc2cb3dc3d6e6U, 0x3dbf1ed4bd17023cU, 0xbd673b6c3dfc77bcU, 0x3c8d92183d3cc2cbU,
  0xbdf30799bcbcc2cbU, 0x3cd91336bdd1ff1bU, 0xbdddcb48be054ff9U, 0x3c8d92183bbcc2cbU,
  0xbdf563a23db80ab9U, 0x3cebf37ebdc17addU, 0x3ca9e284be067dfdU, 0x3dfa1bb3bc0421f4U,
  0xbc8421f4bcd91336U, 0x3de997753d124a2aU, 0x3b97023cbdfc77bcU, 0xbc97023cbd62835aU,
  0x3cebf37ebc97023cU, 0xbdf307993c0421f4U, 0x3e02f3f03dd1ff1bU, 0x3d2e9a95bd8421f4U,
  0xbd2e9a953de2835aU, 0x3b62835abd4fa312U, 0xbc0421f43d97023cU, 0xbe0ec01dbd995e45U,
  0xbd25dba43d44f4d3U, 0xbe179ac43dada1f0U, 0x3d5edf243e0576beU, 0x3da34435bce40e02U,
  0x3c9120303c25dba4U, 0xbdb0395ebe06c275U, 0xbaa5dba4bde93cdfU, 0x3e248fedbd693cdfU,
  0x3cb0395eU, 0x3d8bf1523cee6bbcU, 0xbdb0395e3e0aa59bU, 0xbd86c275bd8bf152U,
  0xbda5dba4be0aa59bU, 0xbdb5683b3de17693U, 0xbda34435bd693cdfU, 0x3e02df4f3dab0a81U,
  0x3db0395e3b25dba4U, 0xbe164f0d3da0acc7U, 0xbddedf24be1e1558U, 0x3b78c976be1b7deaU,
  0xbdbfc5f6bdf63207U, 0x3d3fc5f6bc25dba4U, 0x3df39a99bd30395eU, 0xbdf632073dccbb1eU,
  0x3d35683b3d3fc5f6U, 0xbdbfc5f6bd640e02U, 0xbbcf528dbda34435U, 0x3e02df4fbc4f528dU,
  0xbdbd2e873db0395eU, 0x3ccf528d3dbfc5f6U, 0xbd819398bd20acc7U, 0x3da5dba4bb25dba4U,
  0x3d81ff12bccffe84U, 0xbe087f063df464a7U, 0x3d943224bd459830U, 0x3dab98603d01ff12U,
  0xbdc831c5bdbdcb72U, 0xbdef317ebdf464a7U, 0x3d96cbb93de4cb2aU, 0xbd8498a7bda1320cU,
  0x3de9fe543dd531adU, 0xbd9e98773c266536U, 0x3df997d1bc91988fU, 0x3cc59830bdf464a7U,
  0x3e104bc53dbdcb72U, 0xbdcd64ef3dc59830U, 0xbdd531ad3db5feb3U, 0xbdae31f5be00b248U,
  0x3b7997d13c7997d1U, 0xbaa665363d8c6566U, 0x3dcffe84bdc59830U, 0x3d9e9877bd7464a7U,
  0x3cf997d13d87323cU, 0xbdb0cb89bddf9801U, 0xbcc598303db5feb3U, 0x3aa665363d6f317eU,
  0x3e0c65663e0efefaU, 0x3e087f063ba66536U, 0x3d4ffe84bddcfe6cU, 0xbdf6fe3cbd5f9801U,
  0x3da665363d459830U, 0x3e25186c3def317eU, 0xbdf6fe3c3dcd64efU, 0xbd5f98013d9bfee3U,
  0x3db807163d9148f6U, 0xbdfe3fafbe0055c8U, 0x3de608dbbc6874bdU, 0x3da713e83d9af87eU,
  0x3e0055c83dd2a9cbU, 0xbd0c71323d722445U, 0x3e03f79b3d380716U, 0x3deae09f3be874bdU,
  0x3c9148f63de39cf9U, 0xbbe874bd3cb80716U, 0xbdc1b69e3de39cf9U, 0x3cb807163cd515adU,
  0xbc2e578e3ded4c81U, 0xbd2e578ebc6874bdU, 0xbcf224453e101305U, 0x3dd515ad3e03f79bU,
  0xbdae578e3d852d8cU, 0x3dc8fa43bd3cdedaU, 0x3d24a8063e188c9cU, 0x3da713e83dcb6625U,
  0xbdc68e613c5515adU, 0x3dcb66253e19c28dU, 0x3dcdd207bdd515adU, 0x3df490273dba72f8U,
  0xbd7bd3cd3c9af87eU, 0x3e018bb9bccb6625U, 0xbdd9ed713db32f52U, 0x3d9620babd639cf9U,
  0x3e0a05503dbcdedaU, 0x3d5515ad3d9fd042U, 0xbdf49027bd9d6460U, 0x3da97fca3c7bd3cdU,
  0x3ca8d1823dd305e2U, 0x3d6a7851bd8a5659U, 0xbb160f90be05a5dcU, 0x3d8a56593cf3d94aU,
  0x3c834d9e3de36f96U, 0x3dda0e9dbd57b65fU, 0x3e14e3713d9867ceU, 0x3d834d9e3d49a4eaU,
  0xbe05a5dcbd65c7d4U, 0x3d6a7851be05a5dcU, 0xbc034d9e3cea7851U, 0xbd3b93743d834d9eU,
  0xbdc043f0bcce5566U, 0xbd9ac00c3c3b9374U, 0x3db2327b3e07fe1aU, 0xbe0479bd3e07fe1aU,
  0x3de117583dc29c2fU, 0xbd3b9374bd9ac00cU, 0xbd57b65f3dc043f0U, 0xbdea78513de11758U,
  0xbdfae205bdc043f0U, 0xbd9d184bbb160f90U, 0xbcce55663d034d9eU, 0xbdf889c6bd5c66dcU,
  0xbd160f903dea7851U, 0xbd57b65fbc034d9eU, 0x3e0479bd3b611758U, 0xbd4043f03d7889c6U,
  0xbd65c7d4bde36f96U, 0xbde5c7d43d5c66dcU, 0x3c034d9ebd960f90U, 0x3dc74cab3e034d9eU,
  0xbdaf8a343dc84387U, 0x3df9b62d3d9e3badU, 0x3dde83ebbcc5ca98U, 0xbd9e3badbdc351aaU,
  0x3d724b61bdb6f500U, 0x3d4fae53be1949d0U, 0xbde0fcdabce375c9U, 0x3e1cff36bd4abc76U,
  0x3c8a7437bdc0d8bbU, 0x3dc84387bc45ca98U, 0x3cb20323bc0a7437U, 0xbdcd3564bdf24b61U,
  0x3d1e3badbdcabc76U, 0xbced5984bdad1145U, 0x3dbe5fccbd87fb49U, 0xbd2d1145bd96d0e1U,
  0x3db96defbdeae095U, 0xbdfc2f1c3d5e83ebU, 0xbd2d1145be1a8647U, 0xbc0a74373cd9920eU,
  0x3d9bc2bebd9457f2U, 0x3d3203233d91df03U, 0x3deae0953c9457f2U, 0x3c9457f23dc5ca98U,
  0xbd85825a3d724b61U, 0xbdbbe6ddbd00907dU, 0xbc6d5984U, 0xbc3203233d9e3badU,
  0xbc9e3badbd724b61U, 0xbccfae53bda0b49cU, 0xbe0a74373daf8a34U, 0xbd7c2f1c3d80907dU,
  0xbd0cf11e3d2dd40bU, 0x3d3bec283dd11052U, 0xbd6f99e63c292157U, 0xbe04b8623de6347dU,
  0xbd5ccf153db4e019U, 0xbcd81c61bda6c7fdU, 0x3d93fd2c3e025f08U, 0xbdbbec283d292157U,
  0xbdb992cd3deae731U, 0xbdef99e6bde181c9U, 0x3d581c61bbe181c9U, 0xbe1529d93c965686U,
  0x3d409edcbc965686U, 0x3bbbec283dfb58a8U, 0xbdceb6f83d883e69U, 0x3dd369acbd8f4a78U,
  0x3d292157bdeae731U, 0x3d1fbbeebd5ccf15U, 0xbc838bb53d66347dU, 0x3dd369acbda6c7fdU,
  0x3de88dd73df1f340U, 0xbd883e693d9b093aU, 0xbcceb6f83db992cdU, 0x3e01325bbda21548U,
  0x3ddf286f3de181c9U, 0xbc838bb5bd744c9aU, 0xbdf6a5f4be0cf11eU, 0xbdf8ff4e3dc7aaeaU,
  0xbda215483d78ff4eU, 0xbdeae7313d3bec28U, 0x3dc551903d5ccf15U, 0x3d6f99e6bc165686U,
  0xbd44df7c3c534741U, 0x3e0673293df27d6aU, 0xbd9c0ed03d667c46U, 0xbc667c463e02d938U,
  0x3e13a79d3c667c46U, 0x3dc9acbebd8b406bU, 0x3e1874df3d7016c9U, 0xbdc9acbebdedb029U,
  0xbde8e2e73dc9acbeU, 0x3d840c88bd74e40bU, 0xbb99a82fbcdce1c4U, 0x3da0dc113dc4df7cU,
  0xbdacdd353d067329U, 0x3d92744dbcb677b8U, 0x3cdce1c43dce79ffU, 0x3e01a5e8bd9c0ed0U,
  0xbd7e7e8e3da5a953U, 0x3dacdd353da5a953U, 0xbd867329bdc9acbeU, 0xbd14daeebe01a5e8U,
  0x3d74e40bbe0b406bU, 0xbdfc17ed3dc7461dU, 0xbdcc135e3dacdd35U, 0x3d667c46bde1af05U,
  0x3deb4988bc534741U, 0xbde1af05bd7e7e8eU, 0x3dc278dbbdeb4988U, 0xbdbdab9a3d31aa76U,
  0x3d01a5e8bcf016c9U, 0x3d2cdd35bd280ff3U, 0xbdc4df7c3df4e40bU, 0x3cc9acbebd534741U,
  0x3deb62153ceb6215U, 0xbe0758663dd3d846U, 0x3cbc4e773dcb0498U, 0x3dbc4e77be3ad5daU,
  0x3cb08990bd6b6215U, 0x3ca4c4a83dcb0498U, 0xbd0d3ad9bdcb0498U, 0x3cdf9d2dbdfa1836U,
  0x3d960e87be131d4dU, 0xbe075866bc8175f2U, 0xbdb37ac9bd7d0970U, 0x3c8d3ad9bd657fa1U,
  0x3ceb6215bddcabf3U, 0x3c3c4e773dd6c980U, 0x3c98ffc13d875866U, 0xbd7d09703cbc4e77U,
  0xbde870dbbdbf3fb1U, 0x3d0758663df14488U, 0x3d2aa71c3cf726fcU, 0xbe0175f2bdcb0498U,
  0x3de870db3dd3d846U, 0x3d7726fcbde57fa1U, 0x3ceb62153dd6c980U, 0xbde870db3d657fa1U,
  0xbe0eb376bd366c03U, 0xbcc8135ebbbc4e77U, 0xbd3089903df435c2U, 0xbd8a499fbd98ffc1U,
  0xbca4c4a83c6b6215U, 0xbdb95d3d3dd9babaU, 0x3db66c033d714488U, 0x3ca4c4a8bde870dbU,
  0x3df1b34e3c319369U, 0x3d67d5c9bccf2bfaU, 0xbdddf8433d87a5f0U, 0x3dc2d713bd22c720U,
  0xbdf6a211bdddf843U, 0xbd5909803dbde850U, 0xbd8c94b33dd90980U, 0x3d3193693daf1c07U,
  0x3da7b5e33cb19369U, 0xbd967239bcecc48cU, 0x3e1c9cacbdbde850U, 0xbdfb90d43b1dd85dU,
  0x3becc48cbd8c94b3U, 0xbddb80e1bdbde850U, 0xbd7b90d4bdfb90d4U, 0xbd4a3d37bda04fbeU,
  0x3c3193693dc2d713U, 0x3ccf2bfabd98e99aU, 0xbc93fad7bd2ca4a6U, 0x3dccb4993dbb70eeU,
  0xbdf919733dc05fb1U, 0x3daa2d44bdc54e74U, 0xbb6cc48c3d1dd85dU, 0x3da7b5e3bd4f2bfaU,
  0x3d0f0c14bd7b90d4U, 0x3ca7b5e3bd7b90d4U, 0xbd76a2113d8c94b3U, 0x3cd909803d8a1d51U,
  0xbd71b34ebdc7c5d6U, 0xbdddf843bcb19369U, 0xbd36822c3dddf843U, 0xbd5909803da7b5e3U,
  0xbe0b2073bde83e3bU, 0x3d3c6c743d683e3bU, 0xbc8c38e53d909aacU, 0xbdba3b90bdb17802U,
  0xbd109aacbd56b71fU, 0x3dc530023dd6b71fU, 0x3d453002U, 0xbd5f7aad3d756391U,
  0x3db3a8e53d07d71eU, 0xbd4530023dea6f1fU, 0xbdcbc2adbdeca002U, 0x3cfe271fbda8b474U,
  0xbdfe271fbde3dc74U, 0xbd3c6c743c9dc002U, 0xbb8c38e53d037557U, 0xbd2ae557bdc760e6U,
  0x3d63dc743dfe271fU, 0xbddd49c9bc837557U, 0x3e0a08013c0c38e5U, 0x3cc991c93da8b474U,
  0x3daf471ebdc991c9U, 0xbd7101cabda68390U, 0xbe0144733db17802U, 0x3e08ef90bd4df390U,
  0xbdc760e63dd25558U, 0x3e048dc8bde83e3bU, 0xbdb5d9c9bddf7aadU, 0xbcc0ce3b3dba3b90U,
  0xba8c38e5bdc991c9U, 0x3e07d71ebe002c01U, 0xbd4991c93d2221c9U, 0xbc8c38e53c525558U,
  0x3ded77a43cb043b1U, 0xbdcb31973cba0e91U, 0xbc7e9aab3e0a5191U, 0xbbc3d970bb9cadf3U,
  0x3d9f20abbd9555ccU, 0x3d1cadf3bd576f2eU, 0x3e11a9b8bd43d970U, 0x3ce13a0d3ca678d2U,
  0xbe0f3700bdbef400U, 0x3d6b04ec3ca678d2U, 0x3d891835bcfe9aabU, 0xbbeb04ec3c891835U,
  0xbd0432c53c891835U, 0xbe0432c5bdb79bd9U, 0xbe1b7497bda8eb8aU, 0xbd48bedf3db79bd9U,
  0xbcba0e913d0dfda4U, 0xbd6b04ecbe02f969U, 0x3b1cadf3bdfc27f3U, 0x3b1cadf3bde89235U,
  0xbdf25d14bca678d2U, 0xbd9cadf3bdd289bfU, 0x3cd76f2ebda4061aU, 0xbd0918353da678d2U,
  0x3d661f7dbcc3d970U, 0xbb9cadf3bdb79bd9U, 0xbcd76f2e3d92e314U, 0xbddc549ebc43d970U,
  0xbd2b5e42bd6b04ecU, 0x3da8eb8a3ddc549eU, 0xbc891835bc6b04ecU, 0xbd9a3b3b3deb04ecU,
  0x3de3bb833b996b76U, 0x3d88a3b53d6fb7e8U, 0xbde155d53dce2867U, 0xbd6aec8dbdf94ea0U,
  0x3ca3022dbd7e19fbU, 0x3d794ea03dbd60a6U, 0x3ddef027bc996b76U, 0x3b996b763cd2f3c2U,
  0xbd063e07bd996b76U, 0xbdaa33373d8d6f11U, 0xbda3022d3dcbc2b9U, 0xbde155d5bcdc8a7aU,
  0x3db8954a3df94ea0U, 0x3d27cd893d8fd4bfU, 0xbdc491af3d8fd4bfU, 0x3d863e073df94ea0U,
  0x3da567dbbb196b76U, 0x3c196b763e0b0963U, 0x3ddc8a7a3df48344U, 0x3d52f3c2bd863e07U,
  0xbc863e07bd8b0963U, 0xbd8d6f113c2c98e5U, 0xbb6621313d662131U, 0xbc863e07bd88a3b5U,
  0x3e09d68cbdefb7e8U, 0x3e18389fbc996b76U, 0x3b6621313d52f3c2U, 0xbd83d8593d495d0bU,
  0xbd8b09633db16440U, 0x3df94ea0bdb3c9eeU, 0xbd794ea03d748344U, 0x3e136d433df48344U,
  0x3bde1647bdb4721aU, 0x3d062d763b940edaU, 0xbcf9d9103dc4a3baU, 0x3c5e1647bd5e1647U,
  0x3dd034e3be018cffU, 0xbdc003433de506f9U, 0xbd0f6e6300000000U, 0xbd4b946c3dcde4a7U,
  0xbc4b946cbc2690b5U, 0x3d940edaU, 0x3d9d4fc83c709822U, 0x3e087db1bdfc294bU,
  0x3da690b5bca690b5U, 0x3e062d76bdc00343U, 0x3dd4d5593d4b946cU, 0xbcc2537e3dc94430U,
  0xbca690b53dafd1a3U, 0xbda1f03e3d21f03eU, 0x3dcde4a73d9aff8cU, 0x3dc003433d675735U,
  0xbde75735bd0acdecU, 0xbd9aff8c3da8e0f1U, 0xbd862d76bdb221deU, 0xbd862d763d62b6beU,
  0x3cde16473d940edaU, 0xbd4b946c3dd2851eU, 0xbce75735bd6bf7abU, 0x3d9aff8c3d2690b5U,
  0x3e12e6bcbcc2537eU, 0x3cb912903d940edaU, 0x3d940eda3db91290U, 0xbd5975d03cafd1a3U,
  0x3c614abe3e01f9e4U, 0x3d6e4a213e01f9e4U, 0xbdd8a07bbd614abeU, 0xbd842474bd4ff639U,
  0x3d134e68bb8aa426U, 0xbe098edebda2785dU, 0x3dcff639ba8aa426U, 0x3c4ff6393d28f80eU,
  0xbdb5f7723d42f6d5U, 0x3d887995bce9f500U, 0x3d69f500bd064f05U, 0x3cc74bf73dab229fU,
  0x3d5cf59dbdb1a251U, 0xba8aa4263d887995U, 0xbddcf59dbddf202dU, 0x3d204dcc3da04dccU,
  0xbd3ea1b4bd9e233bU, 0x3cbea1b4bd01f9e4U, 0x3d31a251bd01f9e4U, 0x3c729f42bc614abeU,
  0xbe07644dbcb5f772U, 0x3c934e68bdf91ef4U, 0xbdba4c93bd544b5aU, 0xbdbea1b43d8cceb7U,
  0xbdfb49853de3754eU, 0x3d8cceb7bd5cf59dU, 0x3da04dcc3db5f772U, 0xbddacb0cbdb1a251U,
  0x3e00e49bbc9bf8abU, 0xbd35f772bdfb4985U, 0x3dbc77243ca4a2edU, 0xbde9f5003d659fdfU,
  0xbdd6ab263d6b9ca1U, 0x3ba78bd33cbc7d4dU, 0x3de3c213bd278bd3U, 0x3d320490bd9a74e7U,
  0x3dcc32693dcc3269U, 0x3dfdefec3d02e53dU, 0x3de3c2133dd94956U, 0x3c666042bdcc3269U,
  0x3e0d5dfabd278bd3U, 0xbc666042be263cbbU, 0x3e0ffc293d7b51bcU, 0x3da4eda4bdb20490U,
  0xbd85836c3ddbe785U, 0x3cfb51bc3e019625U, 0xbcc6f60b3c278bd3U, 0x3df3772fbdacc832U,
  0xbe019625bd516ec8U, 0x3bfb51bc3c278bd3U, 0x3b7b51bc3dbf1b7dU, 0xbd516ec8bd3c7d4dU,
  0xbdd40cf73dde85b4U, 0xbbd16ec83df6155eU, 0xbda4eda4bb7b51bcU, 0xbbfb51bc3d76155eU,
  0x3daa2a02bb7b51bcU, 0xbdc6f60bbe02e53dU, 0xbd1d13163d76155eU, 0xbd9538883dbc7d4dU,
  0x3da78bd3bcbc7d4dU, 0x3c278bd33cfb51bcU, 0x3d2cc832bbd16ec8U, 0x3d08219b3c929a59U,
  0xbd07bdc43d944f56U, 0x3e1f9f263d6c4a55U, 0xbc71515cbe03f87eU, 0x3d34fd05bc20e0e8U,
  0x3dcb9ca63ba0e0e8U, 0xbdc6959e3dbc8790U, 0x3bc91922bd11cbd2U, 0xbe16d2dabd8cc4cbU,
  0xbaa0e0e8bca0e0e8U, 0x3db279813c71515cU, 0x3d8cc4cbbd9bd9e1U, 0x3e0b8309bc96d2daU,
  0x3cb4fd053d944f56U, 0x3d82b6bc3df65863U, 0xbd8a4147bc491922U, 0xbe0a41473c0cc4cbU,
  0x3cd32730bdad727aU, 0x3ce7434e3d8a4147U, 0xbdbf0b143d9bd9e1U, 0xbdaff5fe3cdd353fU,
  0x3d5d353fbdbc8790U, 0xbba0e0e8bdbc8790U, 0xbd25e7ef3d9bd9e1U, 0x3dc4121b3d44121bU,
  0xbd44121bbaa0e0e8U, 0xbdbf0b143d96d2daU, 0xbddfb8c3bd9bd9e1U, 0xbd25e7efbd8f484fU,
  0xbc5d353f3deecdd8U, 0x3bc919223d67434eU, 0xbd25e7efbd5d353fU, 0x3d7b5f6a3d96d2daU,
  0x3c830307be064980U, 0x3da821c03e041a85U, 0x3de77447be0760feU, 0xbd9d36d53d7d4a1eU,
  0x3d703037bd9f65d1U, 0x3da5f2c4bd8760feU, 0xbe00d40bbce31650U, 0x3e08787cbdbdf796U,
  0x3ce316503d0760feU, 0x3d101ceebdf48e2eU, 0x3da5f2c4bd98d8ddU, 0x3bd19e71bcb76aa3U,
  0xbd4026923c748e2eU, 0x3d2a50bcbdd3cd6dU, 0xbde5454cbde0e754U, 0xbe0aa778bdc4848aU,
  0x3d8303073dbbc89bU, 0x3df6bd2abdc8e282U, 0xbdf48e2e3da3c3c8U, 0xbdfd4a1ebda3c3c8U,
  0xbc9d36d5bd5a5a60U, 0xbd147ae5bd901ceeU, 0x3d8bbef6bddeb858U, 0x3d8bbef6be098ffaU,
  0x3df48e2e3dc6b386U, 0x3baeaeb4bd147ae5U, 0xbdf030373caeaeb4U, 0x3d947ae5bd0bbef6U,
  0x3a8bbef6bcc02692U, 0xbd853202bdcd4079U, 0xbdfb1b223d519e71U, 0xbdf48e2e3df25f33U,
  0xbd00f593bd5d12b3U, 0xbd4aa679U, 0xbd8a2bb0bdbb4c49U, 0x3dabf2193d9361ccU,
  0xbcd0ca8cbb448266U, 0xbcc48266bdcaa679U, 0xbc5d12b3bdc48266U, 0xbdc482663d32162cU,
  0xbd383a40bdb52836U, 0x3e00f5933de95ad9U, 0x3d0d3db9bdd6eea0U, 0xbb448266bdd3dc96U,
  0xbe08a2abbdf5a300U, 0x3b9361ccbd9c97e9U, 0xbe04079dbd32162cU, 0x3c8719a63daf0423U,
  0x3d5d12b3bddd12b3U, 0xbe42f9613d8719a6U, 0xbdc482663d695ad9U, 0x3c448266bd695ad9U,
  0x3c1361ccbd32162cU, 0x3d1985e0bdd3dc96U, 0xbda8e010be0a2bb0U, 0x3d9fa9f3bc1361ccU,
  0x3d32162cbda5ce06U, 0x3cd0ca8c3daf0423U, 0xbc75a300bd00f593U, 0xbe027e98be04079dU,
  0x3de336c6bda5ce06U, 0xbb9361ccbdfed91cU, 0xbc9fa9f3bd32162cU, 0xbde336c63cc48266U,
  0xbdc1dc3dbc9b1697U, 0xbdcb8da63cf2534cU, 0x3db3521f3db5be79U, 0xbd9fef4cbbc1dc3dU,
  0xbd72534c3d1fef4cU, 0xbd382ad33cdef079U, 0x3dc6b4f13d7c04b5U, 0xbd9b1697bca4c800U,
  0xbe04113dbdbf6fe2U, 0x3c2e796abb1b1697U, 0x3d41dc3dbd02db0fU, 0xbc2e796a3d0c8c79U,
  0x3de8a1e23d963de2U, 0x3dc6b4f1bdeb0e3dU, 0x3d07b3c43e01a4e2U, 0xbc9b16973dc1dc3dU,
  0x3b1b1697be02db0fU, 0xbbe8a1e23db0e5c4U, 0x3db82ad3U, 0x3dc44897bc68a1e2U,
  0xbd5ef0793d46b4f1U, 0x3defe6f23db82ad3U, 0x3dda17c4bd98aa3dU, 0xbdae796abd8a201eU,
  0x3ddef0793dc9214cU, 0x3e19e06a3d87b3c4U, 0x3d68a1e2bdb82ad3U, 0xbdf72c01bdc9214cU,
  0x3ddef079bd9d82f1U, 0x3cc1dc3dbd46b4f1U, 0x3d4b8da6bd382ad3U, 0x3d82db0fbe006eb5U,
  0x3d422e25bdb4f0d1U, 0xbe034ad63dc697ecU, 0xbda9e8603ccb01b2U, 0x3ddca8cdbd772375U,
  0xbd1edff03d4f6b79U, 0xbb0d38d5bdf084cbU, 0xbbd3d540bdcb01b2U, 0x3bb0870a3d8b03f2U,
  0xbd4697ecbde9e621U, 0xbd93d77fbdd60a23U, 0xbcee4fe73dbb8f7bU, 0xbe0c1e633c657c5aU,
  0xbcf723753e034ad6U, 0x3e023064bc657c5aU, 0x3db0870a3dc46308U, 0x3b0d38d5be08cf0eU,
  0x3da349b6bc1edff0U, 0x3d046548bd611293U, 0xba8d38d5bd422e25U, 0x3c9edff0bde9e621U,
  0xbdd60a23bcd3d540U, 0x3c0d38d53c960c62U, 0xbd960c623d88cf0eU, 0xbd8f6db83db4f0d1U,
  0xbcd3d5403ddeddb0U, 0x3d72b9ae3db2bbeeU, 0xba8d38d53dda73e9U, 0xbbd3d540bd0d38d5U,
  0xbdb95a983db95a98U, 0xbd30870a3d9cab0cU, 0xbd08cf0e3b53d540U, 0x3dee4fe73de9e621U,
  0xbd8ea995bcdee8f9U, 0xbd67d3923d99ced5U, 0x3ddcae52bdbb3e94U, 0xbd8384553d753378U,
  0x3d70be2bbdfbe36bU, 0xbdf53378bd7e1e11U, 0x3cd5fe603c85befcU, 0xbca969613b55fe60U,
  0x3d79a8c5bde7d392U, 0x3e002c5c3b8ea995U, 0xbc44292d3dbb3e94U, 0x3d296961bde598ecU,
  0xbbb253fa3d753378U, 0xbe07f9a23d1c097bU, 0x3db019543d8ea995U, 0x3c3253fabc3253faU,
  0x3e0d8c423e05befcU, 0x3d55fe60be038455U, 0x3d85befcbe0b519cU, 0xbd2ddeae3d3b3e94U,
  0x3bf9a8c5bdee8385U, 0x3d90e43b3d8149afU, 0x3dda73acbddee8f9U, 0x3d85befc3d85befcU,
  0x3b0ea995bdfbe36bU, 0x3c97942e3da72ebbU, 0xbcb253fabd70be2bU, 0xbdb903ed3d0a3448U,
  0x3dd3c3b93dd3c3b9U, 0xbd85befcbd489e7aU, 0x3df533783db01954U, 0x3dd18913bc8ea995U,
  0xbc834c7b3d219935U, 0x3cbfe5efbcd41916U, 0x3dd69f7a3da92c63U, 0x3c35cc5c00000000U,
  0xbda41f9abdbd5f8aU, 0xbc5e32a93cd41916U, 0x3d94f93dbd684c3cU, 0x3d5e32a9be0d660eU,
  0xbe2056033b7265d0U, 0xbdde32a93c8d660eU, 0x3d9272d8bd6d5906U, 0xbd9f12d0bdb5cc5cU,
  0xbd219935bd1c8c6bU, 0x3dc4f2b9bd7c7f63U, 0x3bc9ff823db5cc5cU, 0xbd834c7bbdf9f8feU,
  0xbdf4ec34bdfc7f63U, 0x3dcc85e73d3fe5efU, 0xbdd925dfbdbad925U, 0xbd177fa23da92c63U,
  0xbc834c7b3dbad925U, 0xbbf265d0bd7c7f63U, 0xbdff05c8bc5e32a9U, 0xbdf77299be071612U,
  0xbdde32a9bdd192b1U, 0xbd7265d03d49ff82U, 0x3dc9ff82bd684c3cU, 0x3db5cc5cbc977fa2U,
  0xbdf77299bd885945U, 0xbde5c5d73cde32a9U, 0xbd2bb2c8be020949U, 0xbd777299bdead2a1U,
  0xbdbf703800000000U, 0x3cb2ad013d95f5c6U, 0xbd5f58413b992693U, 0x3cb2ad013e04695aU,
  0xbd6c1b78bacc336fU, 0xbdbf70383d5f5841U, 0xbd58f6a63c8c635cU, 0xbc4c336f3c4c336fU,
  0x3da5e9cabd92c4f8U, 0x3d1926933d2c4b66U, 0xbd95f5c63c32ad01U, 0x3e15f5c63ddc2774U,
  0x3e0601c1bdf8deafU, 0x3e0f942a3ddc2774U, 0xbacc336f3cd8f6a6U, 0x3d1f882fbdf8deafU,
  0x3c65b9ddbdc902a1U, 0x3e4a9b08bdaf7c33U, 0x3db2ad01bd58f6a6U, 0x3dcf643d3cbf7038U,
  0x3ddf5841bd0c635cU, 0x3d8c635c3d5f5841U, 0xbdbc3f6abde8eaabU, 0xbc65b9dd3c992693U,
  0x3daf7c333d92c4f8U, 0x3e178e2cbc65b9ddU, 0xbda5e9cabd78deafU, 0x3acc336f3d65b9ddU,
  0xbc8c635c3d8601c1U, 0x3dd8f6a63df5ade2U, 0x3c32ad013c992693U, 0x3e212096bd2c4b66U,
  0xbe0089febd3f1a2eU, 0xbdd5da403dbf1a2eU, 0xbd03f39abdc3a6ffU, 0xbdb6008ebc7ecd93U,
  0xbcd14d70bc7ecd93U, 0x3d75b3f33dccc09fU, 0xbdb3ba263cda6710U, 0x3d919a0bbd0d0d3bU,
  0xbdfecd93bc7ecd93U, 0x3da85a1dbd119a0bU, 0x3dd14d703d3a8d5eU, 0xbcec9a52bd43a6ffU,
  0xbdf7fa5b3d83f39aU, 0x3d1626db3db173bdU, 0xbd36008e3d863a02U, 0x3dc16097bcbf1a2eU,
  0xbd986d44bd919a0bU, 0xbe09a39e3dc16097U, 0xbdca7a373d7ecd93U, 0x3dfecd93be09a39eU,
  0x3c119a0bbcec9a52U, 0x3ce380b13d8f53a3U, 0xbdda67103d36008eU, 0x3d75b3f33df5b3f3U,
  0xbe1076d73df7fa5bU, 0x3cfecd93be0ac6d2U, 0xbbda67103d9626dbU, 0xbd75b3f3bdb846f6U,
  0x3d986d443de380b1U, 0x3da3cd4cbdf7fa5bU, 0xbd863a02bde5c719U, 0xbd119a0bbdbcd3c6U,
  0x3dc7ddfebde8079aU, 0xbd13075a3c80a66fU, 0x3d4591e13c4a2a1cU, 0x3dded7243da56845U,
  0x3d9e83edbd3330f6U, 0xbdff00c0bceeebf2U, 0xbdf13810be01cc7dU, 0x3de123423a93075aU,
  0xba93075a00000000U, 0xbbb7c930bd40f9a6U, 0xbde5bb7dbdf5d04aU, 0x3e078ac73d612342U,
  0xbd955377bcd35a91U, 0xbd8e6f1fbdb330f6U, 0xbdda3eeabdcc7639U, 0x3dc591e1bde8079aU,
  0x3da7b463be00a66fU, 0xbceeebf23d99ebb2U, 0x3d80a66f3d1c37d0U, 0x3daa00803d73842dU,
  0x3dea53b7bd89d6e4U, 0xbb5c8b07be053eaaU, 0xbc9c37d03dac4c9dU, 0x3d179f95be02f28cU,
  0x3e10bb3d3db330f6U, 0xbd3330f63cc0f9a6U, 0xbd13075a3da56845U, 0xbd7cb4a3be0f952eU,
  0x3da7b4633a93075aU, 0x3d9c37d03dc345c4U, 0x3e11e14bbdfa6885U, 0xbd89d6e43dc7ddfeU,
  0x3d32f0bfbded1896U, 0x3def5532bdc7123bU, 0xbdf191cebcf191ceU, 0xbd3769f7bca10bdfU,
  0x3ded18963c8f26ffU, 0x3d0aadc73dfefd76U, 0xbcc4d59f3e03f7f3U, 0xbd494ed73d4dc80fU,
  0x3da585173e0e08b1U, 0xbdc299033d44d59fU, 0xbe0516413e0aadc7U, 0xbd32f0bfbd9c92a7U,
  0x3ddd70523cc4d59fU, 0xbd5faceebdf3ce6aU, 0x3d06348fbc7a843eU, 0xbd7191cebc7a843eU,
  0xbdc94ed73d5faceeU, 0xbdd6ba7ebe0bcc15U, 0xbdae7787bd7a843eU, 0xbcbbe32f00000000U,
  0xbd83f7f3bd4dc80fU, 0x3e06348fbcdfaceeU, 0xbd83f7f33b56ba7eU, 0x3cfa843e3d81bb57U,
  0xbe08712b3c689f5eU, 0x3dae77873d689f5eU, 0xbca9fe4fbd258517U, 0x3d1c92a7bd0aadc7U,
  0xbd9a560bbcf191ceU, 0x3d9c92a7bbfa843eU, 0x3dcb8b733dc4d59fU, 0xbcfa843ebde662c2U,
  0xbdd929733dbf4f2fU, 0xbd9887c8bcd92973U, 0xbd83d92abd15f1f4U, 0x3d15f1f4bd066efeU,
  0xbdbcb95bbdd167f8U, 0x3cced224be242a00U, 0xbaa574eabd15f1f4U, 0x3e0904d2bd68ac69U,
  0xbd8e3079bdb4f7e0U, 0xbdfd5b063d49a67dU, 0xbd6dd810be0ce58fU, 0x3dbcb95b3d7303b8U,
  0xbe0ce58f3de380c2U, 0xbd0b9aa5bd3a2387U, 0xbd68ac69bdfac533U, 0x3dfff0dabd8e3079U,
  0xbe1887c83dde551aU, 0xbc4ed224bde8ac69U, 0xbc3a2387bdb78db4U, 0x3dc1e502bdc9a67dU,
  0x3deb423dbd782f5fU, 0xbdb4f7e03cf82f5fU, 0xbdba23873dc1e502U, 0xbd68ac69bda04943U,
  0x3daaa0913da2df16U, 0x3d066efe3cd92973U, 0x3d9887c8bdc1e502U, 0x3d7d5b06bdbf4f2fU,
  0xbd9db36fbe0ce58fU, 0xbe07b9e8bdafcc39U, 0xbc866efebd95f1f4U, 0xbddbbf473db2620cU,
  0xbe09392abdc59a00U, 0x3de456eebd26dd11U, 0x3df81988be070719U, 0xbdc59a003dc9fe22U,
  0xbd977e99bd3cd1bbU, 0xbd99b0aabdd95c99U, 0xbb8c8444bd2278efU, 0x3d9be2bb3dc7cc11U,
  0xbd1e14cc3d90e866U, 0xbc52c666bdafa555U, 0xbe0b6b3bbdbcd1bbU, 0x3dc7cc11bdb40977U,
  0xbe0b6b3b3dc59a00U, 0xbd8a5233bdc135deU, 0x3d0c8444bdbcd1bbU, 0x3ddb8eaabdbcd1bbU,
  0xbd459a00bcfeafbbU, 0x3a8c8444bd8a5233U, 0x3c0c8444bdd2c666U, 0xbc8c84443e04d508U,
  0x3cfeafbbbe02a2f7U, 0x3d8189efbd154c88U, 0xbd718355bdfc7daaU, 0xbd718355bd6456eeU,
  0xbc9e14cc3d7a4b99U, 0xbc1e14cc3da6dd11U, 0xbc1e14cc3c83bc00U, 0xbda6dd113dad7344U,
  0xba8c84443de8bb11U, 0xbd0c84443d49fe22U, 0xbcc135de3d52c666U, 0xbe0b6b3bbda6dd11U,
  0xbcd13418bd0cfc27U, 0xbdfc6898bdacd1feU, 0xbde11f04bd5a4c9fU, 0xbd9ce7123dded8e2U,
  0xbd985acfbc886fe3U, 0xbd7109f03d9aa0f1U, 0xbe02c08f3d3f030bU, 0xbe086fe3be0992f4U,
  0x3d636526bd67f169U, 0x3d9aa0f1bdded8e2U, 0xbd2cd1fe3dec7dacU, 0xbe0629c2bdda4c9fU,
  0x3dded8e2bce36526U, 0xbdaa8bdc3e106559U, 0x3dbcbce9be074cd3U, 0xbca3b977bdc81b92U,
  0x3e019d7e3e0992f4U, 0x3de5ab47bcbf030bU, 0x3dbcbce93dd5c05cU, 0xbddc92c1bd8ab605U,
  0x3c11886abd67f169U, 0xbdceedf73e0cfc27U, 0x3dceedf7bd6c7dacU, 0x3d3f030b3db3a463U,
  0x3df109f0bc9aa0f1U, 0xbd2cd1fe3d11886aU, 0xbe0992f43a91886aU, 0x3d513418bd2cd1feU,
  0xbdb15e41bdf109f0U, 0x3dcca7d5bbb5ea84U, 0xbcec7dac3d23b977U, 0x3cfeaeba3bb5ea84U,
  0x3d9ff9a8bd993739U, 0xbc1033f93d1db8d8U, 0xbd9ff9a83dcd09e6U, 0xbcb440f7bd82af1aU,
  0x3cbd4437bdad7e88U, 0x3dbf8507bcf357b4U, 0x3b1033f93db440f7U, 0xbde39205U,
  0xbd53cc56bc3440f7U, 0x3cfc5af4bc3440f7U, 0xbd223a78bd77d954U, 0xbbb440f7bbb440f7U,
  0xbd77d9543d4ac916U, 0x3de5d2d5bd6a5475U, 0xbdab3db8bd7c5af4U, 0x3dd3cc563ccf4ab6U,
  0x3df7d954bdfe9bc4U, 0xbdad7e88bd4ac916U, 0xbd9937393cd84df6U, 0x3ce151353de813a5U,
  0xbe018eb23dbd4437U, 0x3c1033f9bd0bb259U, 0xbbfc5af43d9ff9a8U, 0xbde392053dbb0367U,
  0xbdc1c5d73d9ff9a8U, 0x3e0cd2c13a9033f9U, 0xbd5ccf953e03cf82U, 0xbd53cc563df59884U,
  0xbd2b3db83e0f1391U, 0x3da47b48bddf1065U, 0x3bb440f7bd0730b9U, 0x3dc888463db681c7U,
  0x3c1965613d29d4d0U, 0xbd96a824bdfc01faU, 0x3df944bd3e08f5f2U, 0x3e00be3a3d08f5f2U,
  0xbbaf4f4aU, 0x3c1965613da71793U, 0xbcc53933bdf68780U, 0x3b837b783e1806c2U,
  0x3c837b783cf10d06U, 0xbce618113de09d97U, 0x3d9edfdbbd768780U, 0x3dba443f3e2df0abU,
  0xbd9edfdb3cdb231cU, 0xbc837b783e0638b5U, 0x3cfc01fabd196561U, 0x3d837b78bc8e706cU,
  0x3d08f5f23d037b78U, 0x3dbfbeb93baf4f4aU, 0xbdaf4f4abddb231cU, 0xbdac920dbce61811U,
  0xbd1edfdb3db4c9c4U, 0x3d037b783ddb231cU, 0x3dd5a8a2bc2f4f4aU, 0x3c4539333e128c48U,
  0x3e13eae63d5b231cU, 0x3e08f5f2bd8e706cU, 0x3d6618113dcab3aeU, 0x3dcab3ae3c837b78U,
  0x3baf4f4a3d8638b5U, 0x3df3ca433e021cd9U, 0x3cc53933bdbd017cU, 0xbce618113c8e706cU,
  0x3d52c089bc4d9c9fU, 0xbd29a136bccd9c9fU, 0xbdcd9c9f3c85a5ceU, 0x3b247d4c3c85a5ceU,
  0x3cec741dbd927f98U, 0x3d247d4c3ddd085eU, 0x3dd2c0893e0837c3U, 0x3da9a136bd9f5962U,
  0xbd1f5962bd5d085eU, 0xbe0980bebdb15716U, 0x3dbb9eeb3e0313d9U, 0xbdd5527f3db3e90bU,
  0x3e127f98bd1a3577U, 0xbd29a136bda9a136U, 0x3e0081e33def0612U, 0x3db3e90bbc390cf6U,
  0xbdcd9c9f3dc5e6bfU, 0xbda47d4cbd2ec521U, 0xbd29a1363e0980beU, 0x3dc878b5bd95118dU,
  0xbdb3e90bbd5d085eU, 0x3c247d4c3e233451U, 0x3dec741d3dc0c2d5U, 0xbd2ec521bddd085eU,
  0xbd9cc76c3aa47d4cU, 0x3dfbdfdcbce22c48U, 0xbd390cf6bda9a136U, 0xbd8feda23d8feda2U,
  0x3e0ac9b8bdcb0aaaU, 0xbaa47d4c00000000U, 0x3ca47d4c3d9f5962U, 0x3d622c48bd15118dU,
  0x3de3438c00000000U, 0xbcacb875bde3438cU, 0x3da5e7123d9f15afU, 0xbd8aa186bd5a2c5eU,
  0xbdc12c9d3cacb875U, 0xbca3a146bb1172e9U, 0xbc9172e9bd35cfa3U, 0xbd4372693da15b7aU,
  0xbd15fe80bdbca106U, 0x3dba5b3bbd35cfa3U, 0x3d03d0233d6c5abbU, 0xbd93b8b53dd7e692U,
  0x3db5cfa33b9172e9U, 0xbda5e712bdfe8918U, 0x3dacb8753c9a8a18U, 0xbd9f15afbc7e8918U,
  0xbd085bba3da3a146U, 0xbcda2c5ebcbee6d2U, 0x3c23a1463d1f15afU, 0xbd7571e9be02ad3dU,
  0xbd95fe80bd3a5b3bU, 0x3dda2c5e3d8aa186U, 0xbe02ad3dbb1172e9U, 0x3d6c5abbbd8aa186U,
  0xbe03d023be105003U, 0x3dd5a0c63cd1152fU, 0xbbfe8918bd3a5b3bU, 0xbd67cf233cd1152fU,
  0x3ddc7229bb5a2c5eU, 0xbdacb8753d9f15afU, 0xbde0fdc03db5cfa3U, 0x3dfc434cbe0ce752U,
  0xbab5aa993b883ff3U, 0x3de03e953dfca13dU, 0xbc083ff3bbb5aa99U, 0xbd9671473e056948U,
  0x3d2a4fef3d7f77e7U, 0x3caa4fefbd083ff3U, 0x3cc105433dbe2e98U, 0x3e343f44bcaa4fefU,
  0xbd8b169d3d35aa99U, 0xbd083ff3bd8ded48U, 0xbcaa4fef3c35aa99U, 0x3d46b297bdd20d41U,
  0xbde8c2943ccc5fecU, 0xbd9947f1bdcf3697U, 0xbdf41d3e3cb5aa99U, 0xbd7f77e73d46b297U,
  0xbd02929ebd9947f1U, 0x3de03e95bdc98942U, 0x3dcc5fecbd856948U, 0x3d1947f13d79ca92U,
  0xbd35aa993d8b169dU, 0x3bb5aa99bd856948U, 0xbdee6fe9bdf9ca92U, 0x3dd7ba963de8c294U,
  0x3c1ef546be056948U, 0xbab5aa993d856948U, 0xbc79ca92be10c3f2U, 0xbd8ded48bd7f77e7U,
  0x3d82929ebe0f589dU, 0x3d1ef546bdaffd44U, 0x3dad269abd3b57eeU, 0xbc63153fbcf9ca92U,
  0x3b0fa2883d726246U, 0x3dc102673e034a90U, 0xbd189cb0bc8fa288U, 0xbd822b4bbdd0b82eU,
  0xbc69681dbc457f7bU, 0xbe0e83433d2a9102U, 0x3d7262463cf26246U, 0x3d86a8603d76df5aU,
  0xbdaccf8c3df023bbU, 0xbd2196d9bd989cb0U, 0x3d49fc8fbd49fc8fU, 0xbb0fa288bdb14ca0U,
  0xbd91e112bdaccf8cU, 0xbd6de531bdd773ccU, 0xbde9681dbdd9b256U, 0x3d941f9c3e022b4bU,
  0x3d8d63fe3df6df5aU, 0x3d8d63febdf26246U, 0x3d410267be0a062fU, 0xbc2196d9bc0fa288U,
  0xbd7fd9823ce9681dU, 0xbe05891a3de72993U, 0xbe022b4bbb0fa288U, 0xbd88e6eabdc340f1U,
  0xbdc7be053cb38b2aU, 0xbc86a8603dfd9af8U, 0x3bd773cc3da85277U, 0xbd0b2574bdb14ca0U,
  0xbd7b5c6e3d2613edU, 0x3cce79a4bd726246U, 0x3d6de5313d49fc8fU, 0xbd88e6ea3c7b5c6eU,
  0xbd2011b53c9b37f5U, 0x3d3378b3bd46dfb2U, 0xbe056417bd118476U, 0xbd24eb74bd385273U,
  0xbdd7d9d1bcb85273U, 0xbddf20703dac3214U, 0x3cb85273bd8caab6U, 0xbccbb9723db5e593U,
  0xbe0564173e118476U, 0x3a9b37f5bdae9ef4U, 0xbe1a0185bca4eb74U, 0x3e056417bc918476U,
  0x3deb40cfbcae9ef4U, 0x3c9184763d7c3aeeU, 0xbd29c5343d856417U, 0x3da27e943de3fa30U,
  0x3dda46b13dd30011U, 0x3db852733d1b37f5U, 0x3e1794a5bdbd2c33U, 0xbd8a3dd6bdd30011U,
  0x3dce26513dae9ef4U, 0xbd3d2c33bdb5e593U, 0xbdc94c923d77612eU, 0x3df01a8fbdc94c92U,
  0x3d556cf1be01c0c7U, 0x3d98cb153da4eb74U, 0x3dd300113deb40cfU, 0xbd98cb15bc918476U,
  0xbcd56cf1bd8a3dd6U, 0xbdd300113dc205f2U, 0x3df2876f3d72876fU, 0xbc4205f2bc87d0f6U,
  0xbd0307d63dab5905U, 0x3d8811fc3e0bd998U, 0x3d858ce93e01c54dU, 0x3bc995e73d8a970fU,
  0x3d3a7776bd122648U, 0x3c71e716bb71e716U, 0xbdd12520bc356d50U, 0xbdc995e73e200230U,
  0xbce7d2ca3dcc1afaU, 0xbcddbe7ebc356d50U, 0xbe1872f7bc8307d6U, 0xbd9ebfa63d94ab5bU,
  0xbd922648bcc995e7U, 0x3d71e716bdb2e83dU, 0x3cfbfb613d8a970fU, 0x3e058ce9bd76f13bU,
  0xbdd12520bde2c8a4U, 0x3e19b5803e1368d1U, 0xbcd3aa333dcea00dU, 0xbe06cf733d1c3a93U,
  0xbd8811fc3e0bd998U, 0xbdddbe7ebd94ab5bU, 0x3cd3aa33bd122648U, 0xbdddbe7ebcf1e716U,
  0x3d1c3a933da144b9U, 0xbd356d50bd5dbe7eU, 0x3d8a970f3ca144b9U, 0x3cbf819c3dc48bc1U,
  0x3d8d1c223e06cf73U, 0x3e15ede43dd62f46U, 0xbe122648bd2b5905U, 0x3d94ab5bbdadde17U,
  0xbd1a0e8bbdf216dbU, 0x3c8cda193c767dacU, 0x3dd7adf63d81d90fU, 0xbd7ae47dbda50f95U,
  0x3df8b114bdedb00aU, 0xbd1140ea3c8cda19U, 0xbd863fe03dd9e15fU, 0x3de715d1bde07b98U,
  0x3c41abe2bdc1abe2U, 0xbd087348be087348U, 0xbdc1abe23dc3df4bU, 0xbb5347263e087348U,
  0xbde4e2693dedb00aU, 0x3dc1abe2bc0cda19U, 0x3d3477703db6aad8U, 0xbdcee0553da2dc2dU,
  0x3e0bc0653d347770U, 0x3d30109fbe098cfcU, 0xbd7216dbbcd34726U, 0xbdf67dacbde07b98U,
  0x3dd57a8e3dff4b4dU, 0x3db8de413dbb11a9U, 0xbdb244083d6db00aU, 0xbdca79843dedb00aU,
  0xbd4a7984bdb47770U, 0x3dde482f3c95a7bbU, 0x3d1e755cbde94939U, 0xbe0aa6b100000000U,
  0x3e00bf5b3d4a7984U, 0x3cd34726bd7ae47dU, 0xbd3d4512bd9c41f4U, 0x3de07b98bbd34726U,
  0x3d4f6666bdfd388eU, 0x3e0976793d67842aU, 0x3cfacf2ebd10b29aU, 0x3d4f66663d9a581cU,
  0xbd3c1b62bcdddea8U, 0x3dd43926bdcf6666U, 0xbdbe84c3bd95855bU, 0x3a9a581cbe19236cU,
  0x3b1a581c3dbc1b62U, 0xbe0841c93c2da320U, 0x3d75fc6dbe10b29aU, 0xbb67842a3deec04bU,
  0x3dfd388ebbc0ee23U, 0x3deec04b3d7fa1eeU, 0xbd7acf2e3d23fd9eU, 0xbd4a93a53dffa1eeU,
  0x3c7acf2e3d2da320U, 0xbd8e493a3c67842aU, 0x3cca93a53d1a581cU, 0xbda666fe3d15855bU,
  0xbe0841c9bd90b29aU, 0xbd1a581c3cb748a1U, 0xbd023a583de04809U, 0xbdc0ee233c7acf2eU,
  0x3d62b1693dfacf2eU, 0x3cada3203d90b29aU, 0xbd543926bdf129acU, 0x3df129ac3a9a581cU,
  0x3d023a583d8bdfd9U, 0x3d6c56ebbd67842aU, 0xbdd439263df865cdU, 0xbd543926bd2da320U,
  0x3ded81fa3d4348bcU, 0xbe0e81303d093a08U, 0x3d38ba6dbd28e4f6U, 0x3d62f3abbdb37345U,
  0xbdd5c1c73dc5ec50U, 0xbc13c857bdbb5e01U, 0x3ba8e4f6bd966bebU, 0xbd9124c3bd28e4f6U,
  0x3cb37345bd190f7fU, 0x3d9bb3133b7d5771U, 0xbb28e4f6bce83ad2U, 0xbd9e56a7be1e56a7U,
  0xbc9e56a73d781049U, 0x3ba8e4f6bdbe0195U, 0xbd93c857bdf56cb5U, 0xbdc88fe4bd990f7fU,
  0xbce83ad2bd531e34U, 0xbdc348bc3ca8e4f6U, 0x3c3e0195be0a8bd2U, 0x3ded81fabbd31e34U,
  0x3c28e4f6bd093a08U, 0xbbfd5771bd62f3abU, 0xbd781049bc93c857U, 0x3d9124c3bbfd5771U,
  0xbe07e83e3dfab3ddU, 0xbded81fabe0544aaU, 0xbe0e81303dd07aa0U, 0xbaa8e4f6bd58655bU,
  0x3d1e56a7be27932cU, 0xbd2e2c1e3d966bebU, 0xbde83ad23c683ad2U, 0xbe07e83ebe1bb313U,
  0x3c7304e43d4e90f5U, 0x3cff2b893db33a02U, 0x3cf304e43c2a1d06U, 0xbddab79a3c85a917U,
  0x3d2409b4be40e57bU, 0xbdfc21e0bbf304e4U, 0xbcff2b893d7f2b89U, 0x3bf304e43d88b2c0U,
  0x3da1000abdf91836U, 0x3d2a1d06U, 0xbc5ab79a3d11cfbcU, 0xbdf91836bac26a50U,
  0xbd60caec3db643abU, 0xbbc26a50bd7304e4U, 0xbd3030583d66de3fU, 0x3d3c56fe3da409b4U,
  0x3d9df6613e0d413eU, 0x3de9e7e8bcf304e4U, 0x3d3c56febd94d965U, 0x3d88b2c03da7135dU,
  0x3d9aecb8bac26a50U, 0x3e011a99bb91cfbcU, 0x3dd4a4483db94d54U, 0x3cce90f53df60e8dU,
  0xbdd4a448bd91cfbcU, 0xbe1df661be104ae7U, 0xbdc26a50be042442U, 0xbbf304e43de6de3fU,
  0x3db33a02bdaa1d06U, 0xbdff2b893de6de3fU, 0xbdfc21e0bc426a50U, 0xbdc573f93dd19a9eU,
  0x3d6b4f44bdb07b73U, 0x3cf683cdbdc14a41U, 0x3cb348953d4f4becU, 0xbd2279c7bd28140cU,
  0x3d49b1a83d2279c7U, 0xbd8943923df683cdU, 0xbd9a12603d067670U, 0xbc7683cd3e067670U,
  0x3e00dc2bbdbe7d1eU, 0x3d80dc2b3deb4f44U, 0x3e03a94d3d3e7d1eU, 0xbc067670bd867670U,
  0x3da546e9bd4f4becU, 0x3e00dc2b3e0c10b4U, 0x3c1cdf82bd83a94dU, 0x3d9faca5bc7683cdU,
  0xbd28140c3c49b1a8U, 0x3d17453e3c9cdf82U, 0xbdb07b73bc9cdf82U, 0xbab348953e0d7746U,
  0x3e17453ebdee1c66U, 0xbcb348953e31e204U, 0xbb8676703de5b4ffU, 0x3db07b733de01abaU,
  0x3bb34895bd441763U, 0xbdfeeb343cd4e631U, 0x3e0d77463dbe7d1eU, 0x3d2279c7bd9cdf82U,
  0x3c067670bdc9b1a8U, 0xbe094392bd8eddd7U, 0x3db615b73d2279c7U, 0xbda546e9bd867670U,
  0xbd82d532bbd4e167U, 0x3d0deb9a3dce3a5cU, 0x3e0ccfc33c850ce0U, 0xbe02d5323de22f7dU,
  0xbdce3a5cbb0deb9aU, 0x3d4c02adbdd2a9b9U, 0x3d6b0e37bd622f7dU, 0x3dddc0213de4672cU,
  0xbb54e167bddff7cfU, 0xbdb80d8c3db39e2fU, 0x3d54e1673dff0359U, 0x3d5dc021bd7ccbaaU,
  0x3dbeb497bdacf724U, 0x3e097c3d3cb16680U, 0x3d785c4e3d479351U, 0xbdc323f43d316680U,
  0x3b8deb9abc316680U, 0xbde69edabd125af7U, 0x3b0deb9a3c54e167U, 0xbd9fa90dbdf1b542U,
  0x3e0628b83d897c3dU, 0xbe01b95bbd897c3dU, 0xbc785c4ebdd0720aU, 0x3e03f1093b8deb9aU,
  0xbd1b39b03d9b39b0U, 0x3e086066bd5950c4U, 0x3dd4e1673d669edaU, 0x3cd4e1673d73ecf1U,
  0x3dfccbaabd097c3dU, 0xbc4323f43d82d532U, 0x3ded45e53c0deb9aU, 0xbdb39e2f3ded45e5U,
  0x3dd9579abdddbba2U, 0x3e006df23a8c8109U, 0x3db1d34fbdf3afccU, 0xbce451afbd340554U,
  0xbd8a4f05bd0c8109U, 0xbda6d93bbd881d01U, 0x3e093603bdd2c18eU, 0x3de21faabbd2c18eU,
  0x3e093603bbf5e1d0U, 0xbe04d1fbbd10e511U, 0xbd9bdf263dd4f392U, 0xbded19bf3dbeff68U,
  0x3de21faa3dd2c18eU, 0xbe04d1fb3d2b3d43U, 0x3d8a4f05bdad6f47U, 0xbda275323d7a45d8U,
  0xbdeae7bb3d49f97dU, 0xbdc595753d26d93bU, 0x3e0b6807bdd4f392U, 0x3d7ea9e03c1e112aU,
  0xbdafa14b3ddfeda6U, 0x3d15491a3dad6f47U, 0xbe0b6807be0186f4U, 0xbce451af3d83b8f8U,
  0x3dd725963dad6f47U, 0x3d10e5113cc1316cU, 0x3da275323dce5d85U, 0x3da4a7373d0c8109U,
  0x3c83b8f8bdd2c18eU, 0x3d9317153c95491aU, 0xbe0b6807bdef4bc3U, 0x3cc1316cbd75e1d0U,
  0x3dac2fc8bdbd29adU, 0xbdf75de2bd98c90bU, 0xba9b35e3bd8f15adU, 0x3da27c6abc556a18U,
  0x3de663fd3da4e941U, 0x3db5e3263dce2391U, 0xbd42035cbdc949e2U, 0xbd1b35e300000000U,
  0x3d0ca8d6be0f15adU, 0x3de8d0d4bdd7d6f0U, 0xbce8d0d4bd02f578U, 0xbd46dd0b3d07cf27U,
  0x3d9da2bbbdf4f10aU, 0x3d5a43c73dd09069U, 0x3d384ffebe042be3U, 0x3d98c90bbda9c2f0U,
  0xbccbb6babc07cf27U, 0xbd118285bd509069U, 0xbdedaa84bdbd29adU, 0x3e07cf27bd509069U,
  0x3da27c6abd7c3791U, 0x3d87cf27be19ff77U, 0xbde663fdbd4bb6baU, 0xbdac2fc83cdf1d76U,
  0xbd68d0d43d82f578U, 0x3dfc37913df0175bU, 0x3d33764ebd85624fU, 0x3cae9c9f3dce2391U,
  0xbdeb3dacbe18c90bU, 0xbccbb6ba3e01bf0cU, 0xbd8a3bfebe05624fU, 0x3db5e326bc68d0d4U,
  0x3d50603a3d471d5fU, 0x3d967e63bdbdda84U, 0x3dbdda843bb93917U, 0xbdab54cf3e0aead1U,
  0xbdc71d5f3e01a7f6U, 0x3e0e63e3bd427bf2U, 0x3d2ff63cbd6c28caU, 0x3cb939173cfa0d12U,
  0xbd0649643dab54cfU, 0x3d01a7f63d01a7f6U, 0xbc4bbecc3e007f9bU, 0x3caff63cbcd501a7U,
  0xbd0f8c3f3e0aead1U, 0xbd83f8adbdd2b0f1U, 0xbd83f8adbc9d7087U, 0x3db6e8603ce7875dU,
  0x3dec28cabd18cf19U, 0xbd70ca383d7eae80U, 0x3e1305513d942dacU, 0xbdbb89cebd7a0d12U,
  0x3cc27bf23d9fc13dU, 0x3d942dacbdce0f83U, 0xbde7875d3d98cf19U, 0xbdf0ca383d942dacU,
  0x3cb93917bd6c28caU, 0x3ce7875dbdd0603aU, 0xbd59a3153d942dacU, 0x3cde4482bdf7bc5cU,
  0xbb942dac3d1d7087U, 0xbd3dda84bda462abU, 0xbcd501a73ca6b362U, 0xbd4bbecc3d5e4482U,
  0x3ca1805cbd7c5890U, 0xbd80b249bd08444eU, 0xbdceec76bde31c81U, 0x3d35b0683dde107eU,
  0xbdcc6674bc35b068U, 0x3de5a283bd08444eU, 0xbd9768563e0d5050U, 0x3dde107e3e08444eU,
  0xbd8d5050bd176856U, 0xbba1805c3d2b9862U, 0x3e203d5bbdceec76U, 0x3d30a4653ded3487U,
  0xbd83384bbcd3f879U, 0xbdeaae863dd3f879U, 0x3d03384bbd2b9862U, 0xbcfc58903ce82884U,
  0x3de5a2833cde107eU, 0xbd88444e3ce82884U, 0xbdcc66743e176856U, 0xbd03384b3d03384bU,
  0x3dbabc6abe047b4bU, 0xbdcc66743e19ee58U, 0x3dde107e3db83669U, 0xbdceec763c21805cU,
  0xbda68c5f3e0e9351U, 0x3db83669bd21805cU, 0xbdfc5890bcb5b068U, 0x3d83384bbd94e255U,
  0xbda4065dbd03384bU, 0x3dfc5890bd0d5050U, 0x3dcc66743d774c8dU, 0x3cbfc86d3d6d3487U,
  0xbc1bdcb63deea9f7U, 0x3de9cb11bdd3e007U, 0x3dd3e0073d5b2e60U, 0x3b1bdcb6bd391618U,
  0x3d7867c2bb1bdcb6U, 0xbe15c617bbc2d3e4U, 0x3df5f84fbde4ec2bU, 0x3e196d43bdb43732U,
  0xbdbb858bbd20bb9cU, 0xbdc2d3e43db1c7c0U, 0x3ccc91afbde27cb8U, 0xbde27cb8bcaf584dU,
  0x3db437323d564f7aU, 0xbd9e4c29bcf388dcU, 0xbd88611f3db43732U, 0x3bc2d3e4bdd17095U,
  0x3e04b9f33c564f7aU, 0xbddd9dd3bcaf584dU, 0x3d6ea9f7bddd9dd3U, 0xbdaa7967be1aa4fdU,
  0xbdace8dabdc7b2c9U, 0x3dace8dabe10e731U, 0x3dec3a84be15c617U, 0x3db43732bc69cb11U,
  0x3e024a803d391618U, 0x3d47b2c9bc564f7aU, 0x3dcc91afbe05f1acU, 0xbdace8da3d47b2c9U,
  0x3c42d3e4bca59a81U, 0x3d7867c2bde4ec2bU, 0xbdd170953dd3e007U, 0x3dc2d3e43cf388dcU,
  0xbd89fc29be00c938U, 0xbd17c894bdb36169U, 0xbd3c945bbdb36169U, 0x3ce5f99a3d9a1550U,
  0x3e00c938bde16021U, 0x3d0e95a2bd9a1550U, 0xbb5cc6a83dd146faU, 0x3db5ae25be0e95a2U,
  0xbd0562b0bca594feU, 0x3b132f1b3df17948U, 0x3dd146fa3d0e95a2U, 0xbd65f99a3dfcf8f6U,
  0x3def2c8cbddf1365U, 0xbda34842bd4a60c5U, 0xbd132f1b3cef2c8cU, 0x3e0562b0bd45c74cU,
  0x3de846573dccad82U, 0x3dea93133bdcc6a8U, 0x3d616021bdc12dd3U, 0xbd0e95a23d1c620dU,
  0x3e0315f4bcca60c5U, 0xbd2ec7f0bd90e25fU, 0x3e1208bdbdd5e073U, 0x3ddf13653dff45b3U,
  0xbcaec7f03cca60c5U, 0xbd7cf8f6bdf85f7eU, 0x3ce5f99a3e06890fU, 0xbd1c620dbd87af6dU,
  0x3d2ec7f0bd957bd7U, 0x3c132f1bbdff45b3U, 0xbd87af6d3dd393b7U, 0xbdccad82bd2ec7f0U,
  0x3c084a36bb35b848U, 0xbdcf4632bd46c18fU, 0xbc93a5babd742fa1U, 0x3d857355bc084a36U,
  0x3cd7cad63df42fa1U, 0xbd13a5ba3e0f6369U, 0xbd742fa1bcc113ccU, 0x3c9f013f3e13a5baU,
  0xbd829c743ddd7898U, 0x3caa5cc4bdb5b848U, 0x3ccc6f513dcc6f51U, 0xbcf9dd633d521d13U,
  0x3cb5b8483d24af01U, 0x3e17e80cbdc113ccU, 0x3d6e81de3db00a86U, 0x3dd7cad6be013103U,
  0xbcf9dd63bdaa5cc4U, 0x3d9f013f3d2a5cc4U, 0xbdebaafd3c35b848U, 0xbdc3eaaebd6e81deU,
  0x3dc998703c79dd63U, 0x3e09b5a73e261a72U, 0xbdcc6f513db2e167U, 0x3cd7cad63daa5cc4U,
  0x3e0131033d63265aU, 0x3e344cd73da4af01U, 0xbd521d133db5b848U, 0x3db5b848bda785e2U,
  0xbcb5b8483d63265aU, 0x3df42fa1bc35b848U, 0xbd4113ccbcd7cad6U, 0x3debaafdbd99537dU,
  0xbdc3db0fbd352aa1U, 0xbcba101b3e0087c2U, 0x3df7448f3d2194b9U, 0x3d8dfed13c43db0fU,
  0x3ce13beb3da8ecf0U, 0xbd9caf3f3d352aa1U, 0xbc92e44bbdba101bU, 0x3beb06de3dadd26aU,
  0xbccda603bd12e44bU, 0x3d90718ebd3ef595U, 0xbd8b8c143e1b75e1U, 0xbd304527bdd018c0U,
  0x3d4da6033dd770f7U, 0x3db79d5ebcb04527U, 0x3d9f21fc3d9a3c82U, 0xbda194b93d8433ddU,
  0xbdc64dcc3d48c089U, 0xbd12e44bbd0dfed1U, 0x3c8919573bc3db0fU, 0xbc6b06debcfe9cc6U,
  0x3dd4fe3abde13bebU, 0xbdeb06debdf9b74cU, 0x3d79b74cbdf7448fU, 0x3d12e44b3db2b7e4U,
  0xbdba101bbd1caf3fU, 0xbd955708bc304527U, 0xbb9caf3f3df25f15U, 0x3e12e44bbdadd26aU,
  0x3d3ef595bdd018c0U, 0x3d17c9c5bcf4d1d2U, 0xbdfc2a09bcd770f7U, 0x3e02fa7f3cc3db0fU,
  0x3d98d300bd285400U, 0xbdb59e003d922e00U, 0x3dfc7e003d04e400U, 0x3cef34003d503200U,
  0xbda61d00bc313000U, 0x3c54a000bdaef900U, 0xbd9b0a00bd0dc000U, 0x3d313000bdf81000U,
  0xbdb130003da3e600U, 0xbe03c880bd82ad00U, 0xbd23e6003d007600U, 0xbe0b8900bdf16b00U,
  0xbdd4a000bdcdfb00U, 0x3ddd7c00bd73a200U, 0x3dd03200be007600U, 0xbd42e800bd82ad00U,
  0xbdd6d7003dd03200U, 0xbdb130003ddfb300U, 0x3d3a0c00bc54a000U, 0xbd9d4100bd4bc400U,
  0x3d122e00bdd26900U, 0xbe0076003d84e400U, 0x3d122e003de42100U, 0x3da3e6003c54a000U,
  0xbb0dc000bdaef900U, 0xbc3130003e0ca480U, 0xbd007600bcef3400U, 0x3d4bc4003d475600U,
  0x3dc2e8003dc51f00U, 0x3d2854003e019180U, 0x3decfd00bc9f7800U, 0x3dbc4300bd42e800U,
  0x3de45a233da79ec3U, 0x3c880a203deba3d3U, 0xbd50eafabd50eafaU, 0xbd969d7f3e1a4256U,
  0xbcd5c6c43d990b64U, 0x3d2ee872bd8a7805U, 0x3bc2579bbe00c070U, 0x3da2c2f83caee872U,
  0x3dee11b8bdd5c6c4U, 0xbcdf7e59bd169d7fU, 0x3de6c8083d2a0ca8U, 0xbd859c3b3d38a007U,
  0x3c55c6c43ddaa28fU, 0x3d0ce5ea3cf2ed82U, 0xbd42579bbdc9a14bU, 0x3d80c070bd880a20U,
  0x3d880a20bd2530deU, 0x3df55b673df07f9dU, 0x3db3c43c3cdf7e59U, 0x3cfca517bd6e11b8U,
  0x3de935eebc42579bU, 0x3c1b79493dfca517U, 0x3d3d7bd1bddf7e59U, 0xbcaee872bd8a7805U,
  0xbd990b64bd6935eeU, 0xbd080a203d8f53cfU, 0x3ddf7e59bd205513U, 0x3db15657bdb63222U,
  0x3d33c43c3db15657U, 0x3df55b673dff12fcU, 0x3dff12fc3e00c070U, 0xbd11c1b4bd942f9aU,
  0x3dbf32133d56239aU, 0x3d6a88843c4bf125U, 0xbcc1beb03c8ec267U, 0x3c98f4dc3d232751U,
  0xbdddc972bdefa1bfU, 0xbc4bf125bda09ab4U, 0x3d8c35ca3d0ec267U, 0xbdaacd293d1e0e16U,
  0x3c60560f3ba32751U, 0xbc0ec267bd6a8884U, 0xbd6a8884bdce7dc3U, 0xbd3273013cfeed6fU,
  0xbb74bafabc378c3bU, 0xbd96683fbdafe663U, 0xbe21e1023dc6d7ebU, 0x3d8ec2673dd6239aU,
  0x3d89a92c3dba18d8U, 0x3dddc972be0349a3U, 0xbd5b3cd53cfeed6fU, 0xbc8ec2673cc1beb0U,
  0xbe0d7c183dc44b4dU, 0xbd28408cbdd6239aU, 0xbc378c3b3da09ab4U, 0xbd9e0e16be05d640U,
  0x3d8ec267bd1e0e16U, 0x3c0ec267bd9e0e16U, 0x3d3273013d56239aU, 0x3ca327513cb78c3bU,
  0x3d871c8f3d09a92cU, 0xbbcbf125bd378c3bU, 0xbdbf32133d0ec267U, 0xbde56f4abcfeed6fU,
  0xbdfd875abd13599bU, 0xbcad5a5c3da284b6U, 0xbdf7072abd31afd2U, 0x3d4305a83dc75b1dU,
  0xbcbeb0323da904e6U, 0xbdd686383dd230c3U, 0x3d9584563e06593aU, 0xbde386993e099953U,
  0xbdcbb092bd24af71U, 0x3e042e803dbeb032U, 0xbdb60547bd475b1dU, 0xbd2d5a5cbc1c0486U,
  0xbdbeb0323db60547U, 0x3c3eb0323cad5a5cU, 0xbd475b1dbd99d9cbU, 0xbde38699bd3eb032U,
  0x3cea06c93d99d9cbU, 0xbd2059fcbda4af71U, 0xbdaf85173b0aaeb0U, 0xbd93599bbde38699U,
  0x3d6a06c93d4305a8U, 0x3ddadbaebb500608U, 0xbcd8b0f33dd45b7eU, 0xbc9c0486bddf3123U,
  0xbdc75b1d3c2d5a5cU, 0x3e00ee683da059fcU, 0xbd13599b3d65b154U, 0xbd99d9cbbc3eb032U,
  0x3d615bdebd500608U, 0x3dea06c9bb500608U, 0xbe076e98bd545b7eU, 0x3d24af713c93599bU,
  0x3d419a27bd3d198bU, 0xbbd81d31bdca9b5eU, 0x3dbf59d9bda215e5U, 0xbd805155bd611e68U,
  0x3d0b92da3e01717cU, 0xbd949412bd2f97b8U, 0x3dd81d313dad576aU, 0xbc87123f3d3d198bU,
  0x3dc19a273d3d198bU, 0xbd0b92dabe0291a3U, 0x3d659f04be0ef34fU, 0x3b101376bdc61ac2U,
  0x3d8291a3be04d1f1U, 0xbdccdbac3daf97b8U, 0xbd9914ad3e05f218U, 0xbd0b92dabdbd198bU,
  0xbdfc220e3dbad93dU, 0xbc7c220e3d5c9dcdU, 0xbb581d31bb101376U, 0xbccf1bfa3e083266U,
  0xbd461ac23d901376U, 0x3c87123f3c6a1fa0U, 0xbd9253c4bc2215e5U, 0x3c9914adbdfc220eU,
  0xbdea1fa0bdf9e1c1U, 0x3cbd198b3de35eb6U, 0xbdc3da743bb41854U, 0x3dccdbac3d9d9549U,
  0xbd2696803da69680U, 0x3dad576a3db1d806U, 0x3b581d31bda8d6ceU, 0xbcf320d73da8d6ceU,
  0xbbfe355abc9a5740U, 0xbbb593d33bb593d3U, 0x3d1ee1583d8a73eaU, 0xbde2f8c73cfe355aU,
  0xbd95cd273c3593d3U, 0x3d62f8c7bd752129U, 0xbcec0cf8ba91430fU, 0x3e02823fbd2c7fa2U,
  0x3b59e496bbb593d3U, 0xbe070c58bc882edeU, 0xbda36b713df9ab42U, 0xbd1ee158bde9c7ecU,
  0xbd7521293da7f589U, 0x3d1a5740bdba1debU, 0x3e095164bd709711U, 0xbd3ea804bdaec4aeU,
  0x3e102089bdbc62f7U, 0xbdd9e496be02823fU, 0xbdb7d8df3dc3321cU, 0xbcd0d0663d1a5740U,
  0xbdf097113dd79f8aU, 0x3d8efe03be03a4c6U, 0xbde0b3bbbd93881bU, 0xbd50d066bcf52129U,
  0x3dcc464dbcc7bc35U, 0x3cac7fa23cac7fa2U, 0xbdf766363d9ee158U, 0xbc91430f3d815fb9U,
  0xbdaec4aebd8efe03U, 0xbdd9e4963e0ddb7dU, 0xbc11430f3d8a73eaU, 0x3b59e496bd709711U,
  0xbdb509113c67b9afU, 0x3ce7b9af3d872c51U, 0x3dcf96573c872c51U, 0x3cc11abc3dbeb0cdU,
  0xbd8e6a1e3de07be2U, 0xbb67b9afbe1946d2U, 0x3dd46a36bdf3cb5bU, 0x3d593e143ce7b9afU,
  0xbd3c46debd825872U, 0x3deef77cbc072c51U, 0xbd8996403d62e5d1U, 0xbca42387bd4ac279U,
  0xbd9a7bca3db50911U, 0xbe05f7593df6354aU, 0xba9a7bcabe01237bU, 0x3d411abc3c546a36U,
  0xbc872c51bc9a7bcaU, 0xbdeef77c3d45ee9bU, 0xbd76354a3d242387U, 0x3d1a7bcabdc11abcU,
  0x3d825872bd7fdd07U, 0xbe05f7593bc11abcU, 0xbdcd2c683d8e6a1eU, 0x3db29f223be7b9afU,
  0x3c546a36bdb9dcefU, 0x3c7b09283b1a7bcaU, 0xbdb509113c072c51U, 0xbd4f9657bd84c262U,
  0xbd90d40dbe038d6aU, 0x3d6c8d8d3d329f22U, 0xbdd6d4253da42387U, 0xbccac2793d1a7bcaU,
  0x3dd93f23bdab622aU, 0xbdd93f23bd1f506fU, 0x3dbeb1bc3dd2014dU, 0x3dcac3763dd93f23U,
  0x3e0861f33c2dcc1cU, 0xbdc11bae3d025915U, 0x3d6c8eb5bda8f838U, 0xba9a7c8b3c411baeU,
  0xbe038e0e3d95a8a7U, 0x3c1a7c8b3d3773e5U, 0xbe072cfa3d8996ecU, 0x3c90d4c23ce7bad0U,
  0x3d5e1308bdf16299U, 0x3de07cfa3d62e6ecU, 0xbc9a7c8b3b9a7c8bU, 0x3dd46b3fbd4f975bU,
  0xbdb509f3bdab622aU, 0xbdcf975b3c1a7c8bU, 0x3d3773e53e0861f3U, 0x3c546b3f3e038e0eU,
  0x3c2dcc1c3da8f838U, 0x3d15a8a73be7bad0U, 0xbd15a8a73dbc47c9U, 0x3de2e6ec3d025915U,
  0xbc1a7c8b3d76367eU, 0xbd411bae3e0d35d7U, 0xbd76367e3cde1308U, 0x3df162993d3773e5U,
  0xbdb0360f3dcac376U, 0x3db509f33d242454U, 0x3dffde46bdf6367eU, 0xbe194792bcb773e5U,
  0xbdb8fbd9bd31959dU, 0xbd8f0ddb3e0b5abdU, 0xbccf2e8d3dccb724U, 0xbb1dda53bd22c926U,
  0xbd67d8aa3dc550e8U, 0xbcd90c32be053036U, 0xbde7d8aa3de2e9d7U, 0x3cb1959dbd93fcaeU,
  0x3e17afccbcf6a522U, 0xbc590c323d0a1f09U, 0x3e1185453e0b5abdU, 0x3d9185453dbdeaacU,
  0xbd18eb803e118545U, 0xbd8041633daf1e34U, 0xbd8c9672bcb1959dU, 0x3cecc77c3d87a79fU,
  0xbdaca6cbbd9b62eaU, 0x3db1959dbc93fcaeU, 0xbd18eb803d804163U, 0xbdddfb05bc8a1f09U,
  0x3d71b64f3dbb7343U, 0x3d4550e83a9dda53U, 0xbcd90c32bc9dda53U, 0x3dd694c93d87a79fU,
  0x3d9dda53bdfe0b5eU, 0xbdf6a5223d918545U, 0x3e1c9e9ebdc550e8U, 0xbd4a3fbabcecc77cU,
  0x3b9dda53bc6cc77cU, 0x3d5dfb053dfe0b5eU, 0x3dd1a5f63e1a2735U, 0x3d0a1f09bd0f0ddbU,
  0xbd7a98c6bda4f9e9U, 0xbba710843d22e34eU, 0x3e0284e73da2e34eU, 0xbd3bf2943ba71084U,
  0x3d271084bce1897fU, 0xbd09d4063dd92f12U, 0x3dc44d023bc87a38U, 0xbd94450fbca71084U,
  0x3e049b82bc965baaU, 0x3cc01fcb3dad5456U, 0xbd0e013d3e006e4cU, 0xbd766b90bd9a88e0U,
  0xbd7a98c63d8beaa2U, 0xbca71084be039035U, 0x3d65b6b6bdb39828U, 0xbd69e3ecbddf72e4U,
  0xbdebfa873d4ca76eU, 0xbd122e743d22e34eU, 0x3df454f43d444d02U, 0x3c69e3ec3cf23e59U,
  0xbc592f12bde7cd51U, 0x3dc44d023d81799aU, 0x3d592f12bcaf6af1U, 0x3d3bf294bdfcaf61U,
  0x3dd71877bd165baaU, 0xbd9eb6173dc6639dU, 0x3df8822b3d987245U, 0x3bc87a383d8beaa2U,
  0xba85a6d03cfa98c6U, 0x3df23e593da2e34eU, 0x3dd718773dcebe0aU, 0x3d592f123bc87a38U,
  0x3d1f51c8bd286c65U, 0xbd361452bd91a9dbU, 0xbd6399663d16372aU, 0xbcd1642bbdc17597U,
  0x3e1086873ddf0c17U, 0xbd888f3d3e01bb47U, 0x3e076bea3e064896U, 0x3cb614523d11a9dbU,
  0xbde826b53d6cb404U, 0xbda1986f3dc3bc3eU, 0xbde5e00ebddcc570U, 0xbd93f0823dbf2eefU,
  0x3c5a7ec8bd1ac479U, 0xbd51642b3d48498dU, 0x3d0d1c8c3d361452U, 0xbd1f51c8bdf387faU,
  0x3d9d0b203db3cdaaU, 0x3d888f3dbcb61452U, 0x3d5a7ec800000000U, 0xbc9ac479bd088f3dU,
  0x3dcf1d83bdb85af9U, 0xbdc602e6bdb3cdaaU, 0xbdc602e63e0bf938U, 0x3e0401eebc7ee93fU,
  0x3dfee93fbe064896U, 0xbd0401eebdfca298U, 0x3ddf0c17bd1ac479U, 0xbbda7ec8bdb61452U,
  0x3d11a9dbbd9f51c8U, 0x3cbf2eefbc361452U, 0xbd1f51c8bd5f0c17U, 0xbdb3cdaabd1f51c8U,
  0xbdb4dacc3d984c76U, 0xbb6472b1bd562b86U, 0x3d3e5f9400000000U, 0xbd9aada8bbe472b1U,
  0xbd8080843c777c40U, 0x3d87a419bb984c76U, 0xbc8542e7bd9f700cU, 0xbdd3ca54bcb4daccU,
  0xbbe472b13e171bddU, 0x3c777c40bd8542e7U, 0x3cb4daccbcb4daccU, 0x3cb4daccbd5aedeaU,
  0x3cedf7783d2693a1U, 0x3d5fb04dbd4321f7U, 0xbd301868bc0542e7U, 0xbd0080843df77c40U,
  0xbdd16922bda4326fU, 0x3e04124e3e14baabU, 0xbdc583293d6472b1U, 0xbde6d3e3bd301868U,
  0xbc8542e73da693a1U, 0xbc5169223d21d13dU, 0xbc6472b13a984c76U, 0x3c984c763e01b11cU,
  0x3d0ec7afbd008084U, 0xbd0542e73d34daccU, 0x3d8542e73d984c76U, 0x3df2b9dc3de93515U,
  0x3d95eb443d5fb04dU, 0xbd9aada83e07a419U, 0x3df058aabd9aada8U, 0x3dcca6bf3d184c76U,
  0x3ca86f62be0cbb61U, 0x3e01a694bddda007U, 0x3d7ca7133c54c296U, 0xbca86f62bd808ae6U,
  0xbb54c296bddb68abU, 0xbd3e98fc3d04f99eU, 0x3cdda0073da63806U, 0xbd6f5ae9bca86f62U,
  0xbe084ca83ddda007U, 0xbdef5ae9bd3a2a44U, 0xbb0dd70fbd2cde1aU, 0xbcba2a44be06154cU,
  0xbd9b23383d98ebdcU, 0x3b8dd70f3d808ae6U, 0xbd4307b5bda86f62U, 0x3e01a694be0730faU,
  0x3c667d783d900e6bU, 0x3c4307b53d9b2338U, 0xbbf8385a3c0dd70fU, 0x3d620ec03c78385aU,
  0x3df192463dba2a44U, 0xbde4461cbdfede6fU, 0xbdaf15773d1f91f1U, 0xbd1b23383ddb68abU,
  0xbde20ec03d620ec0U, 0x3e04f99ebda400a9U, 0x3cba2a443d7ca713U, 0x3da1c94dbd16b480U,
  0x3d620ec0bddb68abU, 0x3dd4c2963d47766dU, 0x3d620ec0bd808ae6U, 0x3dd053de3d0dd70fU,
  0x3d23a1373cf31b68U, 0xbd82e75f3dcb5e4fU, 0xbe10ede03d159ab6U, 0x3c959ab6U,
  0x3d853dca3a959ab6U, 0x3e146f81bd526190U, 0x3df31b683e066900U, 0xbdd4b7fbbc731b68U,
  0x3de76b52bc731b68U, 0xbdaf514d3dc907e5U, 0x3d159ab6bccdb4baU, 0x3dfa1ea8bcc45b0fU,
  0x3d0c410b3d36548eU, 0xba959ab6bdd00b25U, 0x3c8c410b3d606811U, 0xbe0412953d3fae39U,
  0x3df0c4fd3dbfae39U, 0x3d853dcabd8e9775U, 0xbd159ab6bdfa1ea8U, 0xbe0e9775bce9c1bcU,
  0x3ca84e0dU, 0x3db8aaf9be146f81U, 0xbc284e0d3c159ab6U, 0xba959ab6be0e9775U,
  0x3dc907e53ccdb4baU, 0x3d959ab6bde514e7U, 0xbb959ab6bd82e75fU, 0xbd8090f43dc204a4U,
  0x3dcb5e4f3ce9c1bcU, 0x3dde11a63de76b52U, 0xbccdb4ba3d10ede0U, 0x3dfc75133d570e66U,
  0x3d1e431c3d9e431cU, 0xbe1358f73d8b295bU, 0x3ca3b82fbdabe7cbU, 0xbd8de3e4bd9358f7U,
  0xbc18ce0abdabe7cbU, 0x3d701f343caea254U, 0xbdd21b4dbb2ea254U, 0x3e2d450fbd7b0959U,
  0xbc5a4ae93d54d5d6U, 0x3d803f363d086ed2U, 0x3d49ebb13db6d1f0U, 0x3e086ed23c44769eU,
  0x3caea254bd1358f7U, 0x3dc731283de7ef98U, 0xbe1358f7bd54d5d6U, 0xbca3b82fbc02f9bfU,
  0xbd85b4483d5a4ae9U, 0xbd701f34bd9b8893U, 0xbd7b09593d701f34U, 0x3d1e431c3ca3b82fU,
  0x3e18ce0abdbc4703U, 0x3ce5350e3df59446U, 0x3db98c793d18ce0aU, 0x3d44769ebda3b82fU,
  0xbdfdc3e2bcb98c79U, 0xbda0fda53e109e6eU, 0x3e1770c5bdaea254U, 0x3ce5350e3db15cddU,
  0xbd7b09593e019c7aU, 0xbe1358f73c98ce0aU, 0xbdcca63a3ccf60c4U, 0x3d886ed23baea254U,
  0xbda65c673c902df3U, 0x3d4216783d8aa256U, 0xbdaeadd23cb173a1U, 0xbe3010ba3d8d6824U,
  0xbd1b452dbd635c26U, 0xbc73fefdbe03b3d1U, 0x3d47a2153d2be804U, 0xbcbc8adb3cff1637U,
  0xbcc7a215be239698U, 0x3cddd089bd8250eaU, 0xbdf98a9abdee7360U, 0x3de8e7c3bd4d2db2U,
  0x3de35c26bdd57f1eU, 0x3daeadd23d36ff3eU, 0xbdabe8043dcff381U, 0xbd0516b9bdabe804U,
  0x3db173a13cddd089U, 0xbd9b452d3da0d0caU, 0xbb8516b9bd4d2db2U, 0x3e03b3d13cbc8adbU,
  0xbde8e7c3bce8e7c3U, 0xbc9b452dbddb0abbU, 0x3dca67e43dcff381U, 0x3d9b452dbd3173a1U,
  0x3dee7360U, 0xbda0d0cabcbc8adbU, 0x3dcff381be1190daU, 0xbde096583dddd089U,
  0xbb8516b93d3c8adbU, 0xbdd844ecbdbf50aaU, 0x3b8516b9bcd2b94fU, 0xbdca67e4bd20d0caU,
  0xbe0386183d5cc5a9U, 0x3d49fba63d291a20U, 0x3cf4422ebde3d16aU, 0x3d96501cbe15237cU,
  0x3d9d5bdd3db98ae3U, 0xbd8ceb1abe13f6dcU, 0x3d24679f3d454925U, 0x3d2dcca0bdda6c69U,
  0x3bbbe423bdc54925U, 0xbdeadd2c3db27f21U, 0xbbbbe4233dc7a265U, 0x3ded366cbbe1782aU,
  0x3d8838993e025978U, 0x3c291a20bb16501cU, 0xbde62aab3d5360a7U, 0xbd98a95c3d038618U,
  0xbd0386183c61782aU, 0xbd291a20bdadcca0U, 0xbdf1e8edbe038618U, 0x3dfb4def3d119d9bU,
  0x3da6c0dfbd6add2cU, 0x3da20e5ebded366cU, 0xbe0a91dabe025978U, 0x3d812cd8bd5360a7U,
  0x3db4d8623e012cd8U, 0xbc8ceb1abbbbe423U, 0x3e0f445b3e0a91daU, 0x3b96501c3e04b2b9U,
  0xbdf1e8ed3e038618U, 0x3e09653abd49fba6U, 0xbddcc5a9bdb025e1U, 0xbd96501cbd93f6dcU,
  0xbd5f8c0100000000U, 0xbde6d622bd69442eU, 0x3b9b82c9bd11ca9cU, 0xbe0812703d5f8c01U,
  0xbe0a807b3d85a465U, 0xbc0812703d2ef322U, 0x3db1612dbc55d3d4U, 0x3bc2637bbd205edfU,
  0x3d7cb4873e1a4bc3U, 0x3dac8517bd96a6b3U, 0x3d9b82c9bdbb195aU, 0x3b69442e3ce9442eU,
  0xbd2a170cbd85a465U, 0x3da7a901bdbff570U, 0xbbe9442ebda05edfU, 0xbd9b82c9bdcc1ba8U,
  0x3c2ef322bcb8ab4fU, 0xbd9914bebd91ca9cU, 0x3d5f8c01bd8f5c91U, 0x3d5aafebbe1301a2U,
  0x3d9438a83da7a901U, 0xbcdf8c013de9442eU, 0xbdc2637b3dc4d186U, 0xbd5aafebbd9b82c9U,
  0xbda7a9013d9438a8U, 0x3dac8517bc1b82c9U, 0x3d03365abde46817U, 0x3dc73f923c7cb487U,
  0xbda7a9013d85a465U, 0xbdebb239bd8a807bU, 0xbd11ca9c3d9914beU, 0x3b9b82c9be0bb781U,
  0xbe00305c3d90e8c1U, 0xbdea1586bdd693bbU, 0x3cf53b1fbd93b227U, 0xbd2cc6bfbd48a4bcU,
  0xbcbd7f24bd3d7f24U, 0x3e10e8c13cdeefeeU, 0xbdd3ca55bc85c328U, 0x3b32598bU,
  0xbd4e37893e0e1f5bU, 0xbd00305c3dc311f0U, 0xbb32598bbe30f4d8U, 0xbcc8a4bc3cf53b1fU,
  0x3decdeedbd9944f3U, 0x3d5eefeebd9ed7c0U, 0xbd90e8c13e1516daU, 0xbe0b55f53daf9025U,
  0xbd1c0e5a3d888c8eU, 0xbdefa8533d5eefeeU, 0xbdacc6bfbd21a126U, 0xbd21a126bdd693bbU,
  0xbd05c328bc32598bU, 0x3dfd9752bdd100efU, 0x3d8b55f53e13b227U, 0xbcb2598bbd7acdebU,
  0xbde74c203dd100efU, 0x3daf90253cbd7f24U, 0xbd967b8dbdaf9025U, 0xbd5eefee3c32598bU,
  0x3ca733f2bd82f9c2U, 0x3dc8a4bc3c9c0e5aU, 0x3b85c3283d37ec57U, 0xbdc8a4bcbd90e8c1U,
  0xbbab5a3e3ceb9c15U, 0x3d70f6e73ddb8b9fU, 0x3ceb9c15bd833117U, 0x3dfbac8b3d60e671U,
  0xbdbb6ab43d8083aeU, 0xbbd630cebd4b7b2aU, 0xbdb0b5103deb9c15U, 0x3d50d5fcbdd8de36U,
  0x3d15eef63c6b9c15U, 0x3e0c9007be25ff6cU, 0x3d4b7b2a3d20a49aU, 0xbc6b9c15be24a8b8U,
  0x3cab5a3ebdde3908U, 0xbc0083aebdce2893U, 0xbd9df7313cab5a3eU, 0x3d30b510bd1b49c8U,
  0x3dd0d5fcbe0083aeU, 0xbd95eef6be2a038aU, 0xbd1094243d0b3952U, 0xbdb8bd4b3ca0a49aU,
  0x3c40c586bd0b3952U, 0x3da8acd5be088be9U, 0x3d70f6e73dd0d5fcU, 0xbda0a49abd664143U,
  0xbc8b3952bdf0f6e7U, 0x3ca0a49abe0083aeU, 0xbca0a49abe1ca07dU, 0x3dee497ebda35203U,
  0xbcab5a3e3dee497eU, 0xbd93418dbdb36279U, 0xbd3b6ab4be11ead9U, 0xbd85de803d8083aeU,
  0xbd9d5050bdd8d67dU, 0xbd108efebdd4960cU, 0x3d96efa7bd9d5050U, 0x3d080e1c3d8a2e54U,
  0x3d7259223cd4960cU, 0x3cf69993bcc39448U, 0xbd6e18b13cff1a74U, 0x3de597cfbd990fe0U,
  0xbdaa11a33dae5214U, 0xbd4c152a3df25922U, 0x3dc9f4f2bc2a11a3U, 0x3d50559bbbaa11a3U,
  0x3db8f32e3dc7d4b9U, 0x3d2a11a33db29285U, 0xbde377973d725922U, 0xbd880e1c3d25d132U,
  0xbdbb13663d9f7089U, 0x3d61575ebdf25922U, 0x3dc9f4f23da7f16bU, 0x3d439448be06fe00U,
  0xbce597cfbdd275d3U, 0x3ddd16ee3d8a2e54U, 0x3e06fe00bda190c1U, 0x3d190fe0bdb29285U,
  0x3dae52143d69d840U, 0xbdf038e9bda3b0faU, 0xbde1575e3d03cdabU, 0xbd2190c1U,
  0x3e05ede4bdd6b644U, 0x3bee18b13d9d5050U, 0xbda7f16b3b880e1cU, 0xbd4c152abdac31dbU,
  0x3c6cf594bdcd0f99U, 0xbdc1ab2dbe066dc8U, 0x3b91d234bd9f7de9U, 0xbb11d2343df3cb6fU,
  0x3d562cbcbb91d234U, 0xbd9aef57bcbf63e4U, 0x3d88b5113da653c3U, 0x3e054a24bdbd1c9bU,
  0x3cd19e2bbdf612b8U, 0x3db646c1bd8afc5aU, 0x3dd62cbcbd8d43a2U, 0xbd11d2343c6cf594U,
  0xbcb646c13def3cddU, 0xbdc639bfbc488108U, 0xbe0afc5a3d7f2fdbU, 0xbd81df36bcc88108U,
  0x3da89b0cbcff2fdbU, 0x3a91d2343c88b511U, 0xbc3646c1bbb646c1U, 0x3db1b82f3d488108U,
  0xbd4d0f99bde61fbaU, 0xbe00bb923e10ae90U, 0xbb5abb4e3d6cf594U, 0xbd562cbcbdbd1c9bU,
  0xbcff2fdbbd1f7de9U, 0xbda89b0c3de19128U, 0xbdc639bf3e04267fU, 0xbcb646c13b91d234U,
  0x3cb646c13d11d234U, 0x3daae255bdad299eU, 0xbcc88108bda653c3U, 0xbdecf594bdc88108U,
  0xbbfb2ac23cfb2ac2U, 0xbdb1e8f43cf0b3a5U, 0xbdaf4b2dbdfb2ac2U, 0xbb2771d73e0bf92aU,
  0x3d3c60123e01820cU, 0xbddbc56a3cbc6012U, 0x3d2771d7bdeb7816U, 0xbdee15de3d0d480dU,
  0xbdacad66bdd689dbU, 0x3e0033293e1cfabaU, 0xbc7b2ac23e02d0f0U, 0xbd7b2ac23dd927a3U,
  0x3e190e0f3d4c12beU, 0xbaa771d700000000U, 0xbdb724833e190e0fU, 0x3aa771d7bd514e4dU,
  0x3d5bc56abc2771d7U, 0x3dfb2ac23dd14e4dU, 0x3c7b2ac23d97bf2bU, 0x3df0b3a53cf0b3a5U,
  0x3c92839cbd6b7816U, 0xbda771d73e2622f3U, 0xbd419ba13c880c7fU, 0x3db1e8f43cf0b3a5U,
  0xbdf0b3a5bdd927a3U, 0x3dfdc88a3dbc6012U, 0x3e056eb7bd080c7fU, 0x3cc6d72f3e1cfabaU,
  0x3d080c7f3d803329U, 0xbd6100f93d952163U, 0x3d2771d7bdeb7816U, 0xbd880c7fbdc43968U,
  0x3c7212163d8600deU, 0x3dff09e9bdbe32c8U, 0xbce96cde3c721216U, 0x3bf212163ccf7d37U,
  0xbd2895bdbd7f09e9U, 0x3dbc097a3dfab74dU, 0x3dc4aeb1bd8ea616U, 0xbe093ed33d8600deU,
  0xbdb36442bde2f0f4U, 0x3de51a42bdc4aeb1U, 0xbd7664b1bdb36442U, 0x3d4f7d37bdf21216U,
  0x3ccf7d373e093ed3U, 0x3d53cfd33d8600deU, 0x3de51a42bdbc097aU, 0xbda44321ba8a537aU,
  0xbd2ce858bb8a537aU, 0xbd2ce858bcfab74dU, 0x3d83d7903deb962cU, 0xbda895bd3c81ae42U,
  0xbd1b9de93bace858U, 0x3cace8583e00999bU, 0xbcd8226f3e02c2e9U, 0x3d882a2c3ca44321U,
  0x3d0a537abdd1a685U, 0xbd313af43e01ae42U, 0x3cace858bce0c7a6U, 0xbd2895bd3c4f7d37U,
  0xbdda4bbd3df88dffU, 0xbd83d790bdeb962cU, 0x3bf21216bd313af4U, 0xbc721216bc81ae42U,
  0x3df935a0bd9bc184U, 0x3b559baebcc3ceb4U, 0xbd559bae3dd7d54dU, 0x3d5a0eecbd974e46U,
  0xbc559baebd3201bbU, 0x3e0d4af93d9514a6U, 0x3df935a03df935a0U, 0xbd974e463d92db07U,
  0xbd3ae838bd9514a6U, 0xbd8347ad3c2034c2U, 0x3de0bbc93d7935a0U, 0x3debdbe5bd7935a0U,
  0x3c0e67c93ca034c2U, 0x3d2034c2bd62f568U, 0x3c974e463dfb6f3fU, 0xbe010e0ebc6768a7U,
  0x3db43b5aU, 0x3dde822abd3ae838U, 0xbdfb6f3fbca034c2U, 0x3d559baebd12db07U,
  0x3cc3ceb4bd43ceb4U, 0x3bf935a0ba8e67c9U, 0x3dde822a3dceeed0U, 0xbd4cb5313d704f23U,
  0xbc8e67c9bde0bbc9U, 0x3e05814c3ddc488bU, 0x3db8ae99bd9bc184U, 0x3cc3ceb43df04f23U,
  0xbe069e1c3db201bbU, 0x3cc3ceb4bda26e61U, 0xbd51286f3d3201bbU, 0xbdebdbe53d3674faU,
  0xbdb43a18bdfaf2eaU, 0xbdcd5262bcf662dcU, 0x3b9201b23df1d2cfU, 0x3d71d2cf3df41ad6U,
  0x3d9691c0bdbb122cU, 0xbd48c255bde66aadU, 0xbdad6203bd36821eU, 0xbdef8ac8bd6d42c1U,
  0x3e00e57fbde1da9fU, 0x3d1b21cd3e08e197U, 0x3c2441e83d2d6203U, 0xbe032d863da8d1f6U,
  0xbd4432473d7af2eaU, 0xbdc8c2553cc8c255U, 0xbdcf9a693d8b299eU, 0x3db8ca25bce422a6U,
  0xbde8b2b43e07bd93U, 0xbb1201b23de8b2b4U, 0xbd820983bdd1e270U, 0x3e0fb9abbb5b028bU,
  0x3deafaba3db43a18U, 0xbe032d86bdbb122cU, 0x3ca441e83c5b028bU, 0xbdab19fdbd08e197U,
  0xbd5b028b3d71d2cfU, 0xbde422a63d9b21cdU, 0xbd71d2cfbcc8c255U, 0xbd0d71a43c6d42c1U,
  0x3d3b122cbd4d5262U, 0x3e10ddafbd1691c0U, 0x3b9201b2bc9201b2U, 0xbc6d42c13c7f82f8U,
  0x3d999808bd84f63dU, 0x3dd77d6b3d3bfb06U, 0xbd77958bbe098bf8U, 0x3ca50e5dbdfe7625U,
  0x3de0a8e23dd9c849U, 0x3c49bc393d2e39d4U, 0x3df7958bbce53e9dU, 0xbce53e9d3dae39d4U,
  0x3d6e6a14bd806081U, 0x3c9be2e6bc806081U, 0xbda078a1bdb51a6dU, 0xbda2c37f3d250e5dU,
  0x3d0060813dabeef6U, 0xbd9be2e6bd9e2dc4U, 0xbb92b76f3ce53e9dU, 0xbda2c37f3df9e069U,
  0xbc250e5d3d77958bU, 0x3dae39d43d653e9dU, 0x3d82ab5fbbdc1326U, 0x3da078a1bda7593bU,
  0xbe1192003db2cf8fU, 0xbd84f63dbb92b76fU, 0xbd898bf8bcc090c2U, 0xbd8bd6d6bb92b76fU,
  0xbda50e5d3dd77d6bU, 0x3db9b0283cd2e7b0U, 0x3e106c913d3bfb06U, 0xbcd2e7b0bc006081U,
  0x3cd2e7b0bdee6a14U, 0x3cf7958bbe02ab5fU, 0xbd4090c23c006081U, 0xbdd2e7b0bdc090c2U,
  0xbd1a614ebd2fd25fU, 0xbe02cb53be02cb53U, 0x3cbcafd0bd8fa8c5U, 0xbde1233cbd16177dU,
  0xbce791f43e03ddc8U, 0x3dadad77be04f03cU, 0xbdbcafd03ca2f4eeU, 0xbd893a0c3d9c8636U,
  0xbe071524bc80a66bU, 0xbd2b888fbcc54371U, 0x3d746f65bc893a0cU, 0x3da0d0063ddab483U,
  0xbe04f03cbdd445cbU, 0xbc3cafd03d386600U, 0x3b093a0c3e00a66bU, 0xbe082798bd5220e2U,
  0x3d893a0cbdba8ae8U, 0xbda963a7bd00a66bU, 0xbd746f653c2b888fU, 0x3c1a614ebdf46f65U,
  0x3d00a66b3dcbb22aU, 0x3dfade1e3e03ddc8U, 0x3d093a0c3dc98d42U, 0x3de34824bda0d006U,
  0x3dd220e23dcffbfaU, 0x3bab888fbdbcafd0U, 0x3c3cafd03d2b888fU, 0xbe0715243dee00adU,
  0x3da0d0063d2fd25fU, 0xbc4dd7123cdefe54U, 0x3cbcafd0bd093a0cU, 0xbc893a0cbbab888fU,
  0xbd7f6b57bdd59f98U, 0xbcd59f983de38e2dU, 0xbc949b8bbd149b8bU, 0x3dd59f98bdd7f206U,
  0xbc9de544bd5ee950U, 0x3d2bd3d9bc8b51d2U, 0xbda9816bbd3e674aU, 0x3dcc55df3df8740cU,
  0xbc717cc23d3078b5U, 0x3c82081a3da9816bU, 0xbe06acf63dc55e95U, 0x3d717cc23dcea84dU,
  0xbbb9c26e3dfac67bU, 0x3de5e09b3c5ee950U, 0x3d0ff6afbcdee950U, 0x3c82081a3decd7e6U,
  0xbc717cc23e045a88U, 0xbb949b8b3d39c26eU, 0xbdbe674a3ccc55dfU, 0x3a949b8bbd3e674aU,
  0x3d228a20bdef2a54U, 0x3d638e2d3d194067U, 0x3de5e09b3d559f98U, 0x3d845a88bd86acf6U,
  0xbda28a203c39c26eU, 0xbdf6219ebe137254U, 0xbd1940673da037b2U, 0xbbb9c26ebdd34d2aU,
  0x3dbc14dcbd82081aU, 0xbd50fabbbdcc55dfU, 0x3d4c55df3d7ac67bU, 0x3d5ee950bde83309U,
  0xbddd96eebd168380U, 0x3bea21e4bd65f392U, 0x3d6e5036bdfadb2bU, 0xbd9683803d33c7bdU,
  0x3d4481043dbc2460U, 0xbdb5dee53b85ca39U, 0xbc37f60e3caf996bU, 0xbd1ee024bd92552eU,
  0xbddd96eebd230e75U, 0x3b48af563d1ab1d2U, 0x3c968380bde80abbU, 0x3c05ca393ce1c540U,
  0x3d12552ebd727e87U, 0x3cfadb2b3caf996bU, 0xbda30e75bd6a21e4U, 0x3dad8242bcb7f60eU,
  0xbd819be7bd989aa9U, 0x3dbe3b89bd05ca39U, 0x3db3c7bdbd4052b2U, 0xbdcef4d0bd48af56U,
  0x3d05ca393d83b310U, 0x3df8c402bc9ee024U, 0x3d019be73cea21e4U, 0x3d727e87bd9cc8fbU,
  0x3dc269db3d903e05U, 0xbda5259ebcc8af56U, 0x3df6acd9be04bea5U, 0x3cc052b2bd448104U,
  0x3dc269db3d448104U, 0x3c37f60ebddd96eeU, 0xbddd96ee3d7f097dU, 0xbda73cc73d727e87U,
  0x3df87d04bd6feb76U, 0x3c6feb763c5ec85cU, 0x3d6feb763cdec85cU, 0xbd271645bda93aa8U,
  0xbc3c82263dd1ee08U, 0x3d6feb763d0918d6U, 0x3db614fc3dfaa167U, 0xbdad836fbda4f1e1U,
  0xbdf87d04bda4f1e1U, 0x3c2b5f0c3e0806a4U, 0xbd40caed3d008749U, 0xbd5636ce3de53586U,
  0xbd6759e93d1a3bf1U, 0x3dd636cebcbc8226U, 0xbca2cd7ebce759e9U, 0xbde535863da71645U,
  0xbd787d04bd383960U, 0xbdc2ef503d495c7aU, 0x3b0918d63cb3f099U, 0x3d8b3d39bd82abacU,
  0xbb8918d6bbefeb76U, 0xbde535863bcda541U, 0x3de0ecbfbd787d04U, 0xbc6feb76bd40caedU,
  0x3db3f099bd84d00fU, 0x3e03bddebd8b3d39U, 0x3d3839603c6feb76U, 0xbdf4343dbd6ba2b0U,
  0xbd84d00f3d40caedU, 0xbd6311223d15f32aU, 0x3df4343dbd40caedU, 0x3dbea68abd51ee08U,
  0xbcd2188d3c30ec41U, 0x3d81ed803d9283a6U, 0xbdbebeb63b30ec41U, 0x3d81ed80bdc18267U,
  0xbd8cfc44bd25dd7dU, 0xbdd2188dbd1aceb9U, 0xbe0774e23d4c912bU, 0x3da5dd7d3dc709c9U,
  0x3d78cc3b3dd79fefU, 0xbd20561bbca5dd7dU, 0xbdb673a33c04b131U, 0xbd0a3893bdb3aff2U,
  0xbd8a38933df6088aU, 0x3db0ec41bdfb8fecU, 0x3dc709c9be008ba7U, 0xbe0774e23cc709c9U,
  0xbdbbfb053dd4dc3eU, 0xbe2b64dfbd6dbd77U, 0xbdbebeb63db93754U, 0xbd2b64dfbd7344d9U,
  0x3bdd27513cb0ec41U, 0x3b84b131bc4709c9U, 0xbd78cc3b3d4c912bU, 0x3cfe539d3d62aeb3U,
  0xbdc446183de83615U, 0xbc7344d9bdb0ec41U, 0xbd5d27513d9d926aU, 0xbab0ec41be2f8a68U,
  0xbcf344d9bdbbfb05U, 0x3dd4dc3ebda8a12eU, 0xbd9547573e034f58U, 0x3d0fbff5bd154757U,
  0xbd122c86bd0909beU, 0x3d5fd42dbd5fd42dU, 0xbdbfda70bc9b4f4eU, 0x3dafdd91bdf6ab22U,
  0x3e0a2e17bdc6b486U, 0xbd2d94df3db6b7a8U, 0xbdc223223dc6b486U, 0x3c5b42c9bd5fd42dU,
  0xbd9d9800bdd468b3U, 0xbbffcdeabd1fe0b3U, 0x3b5b42c9bdd8fa17U, 0xbca472173d1b4f4eU,
  0x3db9005a3defd10cU, 0xbddd8b7bbdf46270U, 0xbd2d94dfbd3b490cU, 0xbd8b52703da6bac9U,
  0xbdbb490cbe0909beU, 0x3c5b42c9bdb9005aU, 0x3dbd91be3d29037bU, 0xbd3fda70bc122c86U,
  0x3d8478593e11082dU, 0x3dc6b486bdd6b165U, 0x3db46ef5bdab4c2dU, 0xbdd8fa17bd122c86U,
  0x3dd6b165bde6ae43U, 0x3c7fcdea3da22965U, 0xbe022fa7bdb46ef5U, 0x3bdb42c93bffcdeaU,
  0xbde21cdf3dc6b486U, 0x3dad94dfbcd22001U, 0x3cdb42c9bb122c86U, 0xbdfd8538bd8909beU,
  0x3d87e44cbca7405dU, 0x3df8438abdaf1761U, 0x3d6b3283bd7ae08cU, 0x3ba7405d3de89581U,
  0xbcb1b463bd706c86U, 0x3e07e44c3e179254U, 0x3bd110743d511074U, 0xbd9258513deb3283U,
  0xbd564a77bdf06c86U, 0x3d179254bd5b847aU, 0xbda9dd5e3d41626cU, 0x3dde217cbdf8438aU,
  0x3e07e44cbdf30987U, 0xbd41626cbde5f880U, 0xbdd3ad763c9ccc57U, 0x3d9f6959bd125851U,
  0x3e05474a3d9f6959U, 0x3d5b847a3d979254U, 0xbd7ae08c3e0bcfceU, 0xbe03f8c93db6ee66U,
  0xbd3c28693c87e44cU, 0xbc1258513e1e1ad8U, 0x3d8fbb503d125851U, 0xbd02aa493c511074U,
  0xbdc3ff6d3d564a77U, 0x3e25f1dc3d1ccc57U, 0xbd8d1e4ebd8a814dU, 0x3c65f8803cd11074U,
  0x3d27405dbd94f553U, 0xbd5b847a3df06c86U, 0xbe03f8c9bcb1b463U, 0x3d2c7a60bdc93970U,
  0x3d248022bcf418f9U, 0xbd84a9663d89f7dbU, 0x3d91ed8abe09f7dbU, 0x3daf1d0c3cbf086aU,
  0x3daf1d0c3d99e339U, 0x3d973bfe3cbf086aU, 0x3ddc37ecbc7eb5e2U, 0x3dac75d1bd99e339U,
  0xbdf171bfbde42d9bU, 0xbdcef3c8bdfc0ea8U, 0x3d99e3393dd990b1U, 0x3df6c0333d642d9bU,
  0xbd973bfebd89f7dbU, 0x3e188f9c3dc456dfU, 0xbe04a9663e287afaU, 0x3d6eca843dcc4c8eU,
  0x3d8f464fbdb712bbU, 0x3d99e339bd99e339U, 0x3df418f9bc54423dU, 0xbb7eb5e23d89f7dbU,
  0x3d9c8a73bd99e339U, 0xbe0355c93d1f31aeU, 0x3d89f7db3df418f9U, 0xbd89f7db3c7eb5e2U,
  0x3aa9ce973d4456dfU, 0xbd29ce973e00ae8eU, 0x3d8c9f153dec234aU, 0x3d82022c3d9494c4U,
  0x3e08a43e3c1494c4U, 0x3c54423dbda7275dU, 0xbd84a9663da48022U, 0x3e0b4b78bb7eb5e2U,
  0xbe053805bcc0d9a0U, 0x3d7399a2bd8b9005U, 0xbe0a4b38bdaf166cU, 0x3d932cd23d81699eU,
  0x3da2666c3e0e199eU, 0x3e0f5e6bbbcb0007U, 0xbd8b9005bd45ecd4U, 0xbe21219fbcac8cd3U,
  0x3d03f338bdd5266eU, 0xbde6e9a2bda4f006U, 0xbe1840053d646008U, 0xbd22666c3db429a0U,
  0x3d8e199ebd5a39a1U, 0x3de9733bbe02ae6bU, 0x3d81699e3b22666cU, 0x3d8e199e3df11008U,
  0xbdee866f3d81699eU, 0xbcf399a2bdcb0007U, 0xbc5f4cd4bd27799fU, 0xbd3bc66dbd184005U,
  0xbd4b0007bdc0d9a0U, 0xbdee866f3cac8cd3U, 0x3e0b90053d55266eU, 0x3ba2666cbdbbc66dU,
  0x3c4b00073d0e199eU, 0x3d5f4cd4bd89066bU, 0x3ba2666cbd867cd1U, 0x3df11008bdcb0007U,
  0xbba2666c3d4b0007U, 0x3d5f4cd43dcb0007U, 0xbdb93cd3bd36b33aU, 0xbe0cd4d2bd2c8cd3U,
  0x3c1827883d956ff8U, 0xbe010f3f3e026b07U, 0xbbade4093e052297U, 0xbd6f198c3d182788U,
  0x3dd95d0bbc826b07U, 0x3d0d49473c43a08aU, 0xbd643b4c3d1d96a8U, 0xbd1d96a83d12b868U,
  0xbd2874e9bb826b07U, 0x3df488adbe204e38U, 0xbd7488adU, 0x3dab2c793dc0e8faU,
  0xbdcbc73b3def198cU, 0xbe1414303dab2c79U, 0xbb2de409be010f3fU, 0x3dff66edbdf7403dU,
  0x3dab2c79be115ca0U, 0x3c6f198cbd8a91b7U, 0xbd335329bcd95d0bU, 0xbe0bed7fbdc3a08aU,
  0xbdd3edebbdec61fcU, 0xbe07da273d1d96a8U, 0xbdd1365b3dd95d0bU, 0x3d7f66ed3d2874e9U,
  0xbdef198c3dc3a08aU, 0xbe246191bc595d0bU, 0x3d2305c8bd956ff8U, 0x3d2305c83d335329U,
  0x3d9d96a8bdd1365bU, 0xbe2c8841bde6f2dcU, 0x3da04e38bd490faaU, 0xbd7488adbd643b4cU,
  0xbbfeb053bd35eba9U, 0xbdb3a5843dc39089U, 0xbbfeb0533cc81cd4U, 0xbda174593d513569U,
  0xbdacd3143dea3903U, 0x3bda4dfebd7597beU, 0x3dbcbe193de1206eU, 0x3d96159fbd96159fU,
  0x3d439089bc918954U, 0x3df7dde33d985bc4U, 0xbe0e201cbd67f2deU, 0xbd8f432fbbfeb053U,
  0x3cd135693d2cd314U, 0xbd0cfd093c918954U, 0x3bfeb053be02c161U, 0xbd2846c93ddc9423U,
  0x3df597bebde36693U, 0x3d96159fba918954U, 0x3c35eba9bdc14a64U, 0x3dfeb053bdc14a64U,
  0xbd9f2e343cda4dfeU, 0xbdceef43bd7597beU, 0x3c8870bf3e106641U, 0x3d8ab6e4bcec7f28U,
  0xbdfc6a2ebd4ca91eU, 0xbd481cd43dd13569U, 0x3e0870bf3daf1939U, 0x3df35198bdb831ceU,
  0x3df10b73ba918954U, 0x3d8f432f3d710b73U, 0xbc23ba7e3d315f5eU, 0x3cfeb0533d35eba9U,
  0x3d8d154cbc764119U, 0xbde1bbac3e056343U, 0xbcb8b0d3be056343U, 0xbc4d36403d19e8b0U,
  0xbde6dd07bd9c795dU, 0xbdbdd22ebd8a849eU, 0xbc38b0d33e041aecU, 0x3da94cc13c38b0d3U,
  0xbd66dd073e07f3f0U, 0xbd5778f63d99e8b0U, 0x3dae6e1c3db38f78U, 0xbd3dd22e3ddf2affU,
  0x3d14c75400000000U, 0xbd61bbac3cebfe63U, 0x3dae6e1c3e18a059U, 0x3cb8b0d33d7b6274U,
  0x3da19ab83e06ab9aU, 0xbdf11fbe3e22e30fU, 0x3c61bbac3d52579bU, 0x3d5778f6bd056343U,
  0xbdbdd22ebaa42b66U, 0xbdda09a3bd0041e8U, 0xbc0fa5f9bdf3b06bU, 0x3bf64119bd0fa5f9U,
  0xbc8563433d61bbacU, 0x3d856343bccd3640U, 0x3b764119bda6bc14U, 0xbd2e6e1c3e0e5da2U,
  0xbc242b663d0041e8U, 0xbdee8f103e07f3f0U, 0xbd7b62743dabdd6fU, 0x3d4d3640bd14c754U,
  0xbdcd6d4abe129192U, 0xbd5d9586bdaacdedU, 0x3d7de5ff3d916a20U, 0xbc8a7d74bd7de5ffU,
  0x3d13b904bdbd450dU, 0xbdc6809dbdd8f7beU, 0x3dcb1e663df94837U, 0x3db4097dbdb1ba99U,
  0x3c8141e43d2f6bb5U, 0x3da3e140bd794837U, 0x3daf6bb5bdd459f6U, 0xbdfb971bbdb8a745U,
  0xbe0390c83d4b1e66U, 0xbdd459f6bdd20b12U, 0xbd9aa5b0bce6d116U, 0x3cc1e2d5bdc6809dU,
  0x3df00ca6bd9cf494U, 0x3c9cf4943da1925cU, 0x3d0141e4bde91ffaU, 0x3dd6a8da3e0141e4U,
  0xbc0141e4bd9f4378U, 0x3a93b904bcaf6bb5U, 0x3dbf93f13d0141e4U, 0x3d700ca63d93b904U,
  0x3d58f7be3ddd9586U, 0xbd5459f63dbaf629U, 0x3c8a7d74bcdd9586U, 0x3d41e2d5bca63024U,
  0x3db1ba99bdc8cf81U, 0xbdcb1e663d21925cU, 0x3ca63024bc8a7d74U, 0x3ddb46a23e0141e4U,
  0x3d9f12c43dcfd252U, 0xbd526324bd481fdeU, 0x3d8d1d09bcc2fe3aU, 0xbd99f1213d856a94U,
  0x3b243467bdbb4bc5U, 0x3d14cf7d3d9c81f2U, 0xbc38baf4bdc81fdeU, 0xbd7b703e3d764e9aU,
  0xbbcd4181bc4d4181U, 0xbdf64e9abe019159U, 0x3c4d41813dec0b54U, 0xbe0a8c37be22ebfeU,
  0x3de1c80e3da6c539U, 0x3d2e77adbe07fb65U, 0x3c0faddabe1617e6U, 0x3d4d4181bd481fdeU,
  0xbaa43467bdcab0afU, 0x3c99f121bd856a94U, 0xbdb1087fbdd784c7U, 0x3d29560abc38baf4U,
  0xbbcd41813dc81fdeU, 0x3d923eac3dd4f3f6U, 0x3bcd4181bc856a94U, 0x3dc81fde3d87fb65U,
  0xbd99f1213ddca66aU, 0x3c38baf43c764e9aU, 0xbdb1087fbdb62a22U, 0xbe138715be0faddaU,
  0xbdcab0af3d8faddaU, 0x3da6c5393dbb4bc5U, 0x3d856a94be0bd4a0U, 0x3dabe6dcbd29560aU,
  0xbd31bd86bd9ff75fU, 0x3e01f8fdbdd3110fU, 0xbdab13373d97144cU, 0x3d00dc9bbb5549d4U,
  0x3d6ff30e3d50d84aU, 0xbe08a34cbc1ff75fU, 0x3c5549d43c0e3138U, 0xbdad4bfcbd8bf873U,
  0x3c670ffbbdfb0ee7U, 0xbbd549d43d6ff30eU, 0x3e0d14d6be066a87U, 0x3d4383adbd6ff30eU,
  0xbd7d47acbdbf1223U, 0xbd78d6223dc14ae8U, 0xbd6b8185bd3aa09aU, 0x3d59bb5ebd5549d4U,
  0x3b5549d43d670ffbU, 0xbb5549d4bd31bd86U, 0x3df46498be054e24U, 0x3d5e2ce8bdfb0ee7U,
  0x3c4383ad3d89bfaeU, 0x3dedba4a3da23024U, 0x3d831560bbd549d4U, 0x3c78d6223d7d47acU,
  0xbd80dc9bbd47f537U, 0xbe0786e9U, 0x3c0e3138bd5e2ce8U, 0xbdc383adbdd3110fU,
  0xbd362f103d8bf873U, 0xbd1b85d53dcc66c0U, 0x3e054e243bb1bd86U, 0xbe00dc9b3cc383adU,
  0xbdf799093debeb2dU, 0xbdf799093d4d8d8aU, 0x3cd6e56ebdd6e56eU, 0xbb603d513d6e4126U,
  0xbe14533a3d6e4126U, 0xbdcb3791bd4d8d8aU, 0xbdbf89b53e064f65U, 0xbd2cd9ee3daf2fe7U,
  0xbc72ed183dc435a7U, 0xbd5b915fbd4435a7U, 0xbe052468bd8e7c4bU, 0xbda12c123df79909U,
  0x3df2ed183d82ce6fU, 0x3b603d513ccd8d8aU, 0x3cc435a73c157e36U, 0xbb603d51bd64e943U,
  0x3dbaddc43db3dbd9U, 0xbde73f3c3dbf89b5U, 0x3dd2397cbd93283dU, 0xbb957e36bd5b915fU,
  0x3d957e363da3820bU, 0x3c4d8d8a3c8c2653U, 0xbdb631d23a957e36U, 0x3d6e4126bd4435a7U,
  0xbda12c123d603d51U, 0x3bbaddc43c9ed619U, 0xbc957e363ca82dfdU, 0x3d48e199bdb631d2U,
  0xbce03d51bdf0971fU, 0x3e077a613d9a2a28U, 0xbd807876bd89d05aU, 0xbdaf2fe7bdbd33bcU,
  0x3c0d75acbd1c9db6U, 0x3deaec90bc835afbU, 0xbcb5e070bd035afbU, 0x3d6d733d3e0d75acU,
  0x3c5e4b33bd26b866U, 0x3d4508793e0aef00U, 0xbc0d75ac3c97905dU, 0x3dae4c6b3d3aedc8U,
  0xbd63588cbd9c9db6U, 0x3e086854bd9f2462U, 0x3e1c9db63d728095U, 0x3dca15d23e1509b1U,
  0xbda6b866be00d44fU, 0x3c4a15d23db359c4U, 0xbde5df383d3ffb21U, 0xbdde4b333cabc5bfU,
  0x3dc78f253bca15d2U, 0xbdbffb21bcde4b33U, 0xbd9c9db6bdeaec90U, 0x3deff9e93d3aedc8U,
  0xbcabc5bfbd80d44fU, 0xbd63588c3c4a15d2U, 0x3bca15d2bd4a15d2U, 0xbd7c9b46bde5df38U,
  0x3cde4b33bdc50879U, 0xbc8d75ac3de3588cU, 0xbcfc9b46bd543082U, 0x3ddbc4873e2067b8U,
  0x3c728095bdcf232aU, 0x3e0c3256bd593ddbU, 0x3d9283053d128305U, 0x3c21ab0e3deaec90U,
  0x3e1327ef3d9b4457U, 0xbbb964b43cfa47f3U, 0xbdb964b4be08ba45U, 0x3d6c60663e02ef1fU,
  0xbd98f314bca6daa2U, 0xbdf3542c3dc99d84U, 0x3dea0f23bd26daa2U, 0x3d59d654bd59d654U,
  0x3deeb1a8bdb270edU, 0x3c81c67ebda2381eU, 0xbc81c67e3dadce69U, 0xbe0b0b873d066902U,
  0xbd4beec6bdd533cfU, 0x3d5533cfbd5533cfU, 0xbc1450903d1d9599U, 0xbd42a9bdbd7eea78U,
  0xbc8b0b873dc2a9bdU, 0xbd0fae0cbd0fae0cU, 0x3da48960bd22381eU, 0x3cfa47f3bd22381eU,
  0x3c5e78d8bd9fe6dbU, 0xbc3964b43c01c67eU, 0x3dab7d26bd631b5cU, 0x3d75a56ebd8d5cc9U,
  0xbdf5a56ebdf102eaU, 0x3cfa47f33dfa47f3U, 0xbdbbb5f6bd7eea78U, 0x3e09e2e6bd5533cfU,
  0x3d9d95993c01c67eU, 0xbdbe07383db71372U, 0xbdab7d26bb945090U, 0xbcd533cfbd9fe6dbU,
  0x3e03b5803ddf1951U, 0xbe03b580bd36c7a2U, 0x3d26a6f6bd8bc5d6U, 0xbd8bc5d6be2aaf21U,
  0xbda146bc3d968649U, 0xbd774a54bdb977bfU, 0x3c810563bc168649U, 0x3e254ee7be06659dU,
  0xbe17de573ccc4888U, 0xbd2c072fbce1c96eU, 0x3e0e75f3bde4798aU, 0x3d1be6833d2146bcU,
  0xbd8e75f33db6c7a2U, 0xbe13d62cbe050d8eU, 0x3bac072fbd112610U, 0x3ddf1951bdc43832U,
  0xbe193666bc168649U, 0xbd93d62cbda95712U, 0xbca146bcbddc6934U, 0x3d993666bd71ea1aU,
  0xbe168649bda146bcU, 0xbd9be683bd316768U, 0xbde9d9c4be025d72U, 0xbdf9fa70bd968649U,
  0xbdb417853d774a54U, 0xbe010563bce1c96eU, 0x3de4798a3d8bc5d6U, 0x3dcc4888bbd708fbU,
  0x3d46e84e3c6c89e1U, 0xbdac072fbde9d9c4U, 0xbe0105633bac072fU, 0x3bd708fb3c5708fbU,
  0xbd6f0c793d89536cU, 0x3e01b257bdd8293cU, 0x3d960a8d3e06c865U, 0xbaa2c1af3d3c2ff2U,
  0x3db719e5bde76b65U, 0xbd8e6979bcacedcaU, 0xbda54cb6bd3719e5U, 0xbcfe4ea1bc3719e5U,
  0x3bf42286bc843d5eU, 0xbdc146003db719e5U, 0x3c8e69793ddd3f4aU, 0xbcf422863c843d5eU,
  0x3ce9f66cbd793894U, 0xbd2cedca3d843d5eU, 0x3e1daba2bdbc2ff2U, 0xbd86c865bb742286U,
  0x3d3c2ff23d3719e5U, 0x3e080de8bd5ab443U, 0x3ca2c1af3d09536cU, 0x3cfe4ea1bdf42286U,
  0x3e217c2c3d937f87U, 0x3df197803dfbc39bU, 0x3c8e6979bca2c1afU, 0x3dec81723e1c661eU,
  0x3cacedcabddab443U, 0x3ca2c1af3cb719e5U, 0xbb22c1afbd989594U, 0x3de76b653d043d5eU,
  0xbdfbc39b3da7d7bcU, 0xbdb719e53dbebaf9U, 0x3dd59e36bd1daba2U, 0x3e0d23f6bd81b257U,
  0x3dfe6be0bdb60afbU, 0x3e028029bcc9c851U, 0xbd9524c13dba6df2U, 0xbe004eaebd9deaaeU,
  0x3dbc9f6d3db60afbU, 0x3cc9c8513da47f20U, 0xbdc10264be0398e7U, 0xbdcbf9cc3dad450eU,
  0xbd45655a3d45655aU, 0xbce41a18be06e320U, 0xbbd28e3ebdc796d5U, 0xbd92f346bd26b09cU,
  0x3db60afbbcb83c76U, 0x3b528e3e3c0c5ed4U, 0xbdfa08eabdfa08eaU, 0x3deaae8abd2b1392U,
  0xbc1deaaebcaf7689U, 0x3d9bb9333ddb542bU, 0xbdd28e3e3d1987b8U, 0xbdad450ebd9987b8U,
  0x3dc796d53cd28e3eU, 0x3dc102643d45655aU, 0x3d9bb9333d7a08eaU, 0x3dd28e3e3d90c1cbU,
  0xbe09149b3cfe6be0U, 0xbe0b46163ce41a18U, 0x3d3c9f6dbdfa08eaU, 0x3d87fbdd3deaae8aU,
  0x3da8e217bcd28e3eU, 0x3d410264bd7e6be0U, 0xbdef11813d26b09cU, 0x3b8c5ed4bdab1392U,
  0xbdada7853c84cb66U, 0xbc8f026dbd9bc737U, 0x3db03547bdbcfa11U, 0x3d1e54f9bc4c4c9cU,
  0xbccc4c9c3dcc4c9cU, 0x3d7f5fc3bd516820U, 0xbe22299cbc23707dU, 0xbca3707dbe038485U,
  0xbd5b9f28bde0baacU, 0x3dff5fc3bd993975U, 0x3c9939753b23707dU, 0xbd1e54f93bf528bcU,
  0x3dcc4c9c3d23707dU, 0xbd5168203dd3f5e2U, 0xbdeaf1b43df7b67dU, 0x3cada785bd5b9f28U,
  0x3d2da785bdf00d38U, 0x3dba6c4fbc993975U, 0x3d193975bdde2ceaU, 0x3dd683a43b23707dU,
  0xbdb03547bd3cfa11U, 0x3b7528bcbd6af1b4U, 0x3bcc4c9c3dcc4c9cU, 0xbd288c013e0c74abU,
  0x3db2c3093d473118U, 0x3dcc4c9cbc60baacU, 0xbda0e2bb3da0e2bbU, 0x3dc9bedabd700d38U,
  0xbd2da7853d700d38U, 0x3c60baacbdf29afaU, 0xbdd3f5e23b23707dU, 0xbd32c309bda88c01U,
  0x3dae066d3d6ea9baU, 0xbdae066d3df89b77U, 0x3b6ea9ba3e0c768fU, 0xbd952a14bd789b77U,
  0xbd97a6833cb2ff4bU, 0x3da198403e1ddd99U, 0xbda90d8e3e09fa1fU, 0x3d9c9f62bdf61f07U,
  0xbd1a22f2bdb57bbaU, 0x3d290d8ebcc6e2c5U, 0xbe0c768fbe13ebdcU, 0xbdab89fd00000000U,
  0x3d063f78bdc46656U, 0x3d152a14bc32ff4bU, 0xbc1f1bd13d92ada5U, 0x3ddac63fbdf3a298U,
  0x3dec2d4a3d8b3857U, 0xbdf12629bd01469aU, 0xbcd0d4823deea9baU, 0x3d7d9455bdae066dU,
  0x3d2e066d3d97a683U, 0x3d952a14bcc6e2c5U, 0x3ceea9babd97a683U, 0x3e01469abdce5813U,
  0xbd8b3857bdf12629U, 0xbd92ada5bd7d9455U, 0x3d1f1bd13dae066dU, 0x3cb2ff4b3ddac63fU,
  0x3d152a143d8b3857U, 0xbd6ea9babd1f1bd1U, 0x3d2414b03d2e066dU, 0x3e08bbe8bd1a22f2U,
  0x3dd394623c44d179U, 0x3dc25ba8bdac374aU, 0x3cbafa33bdcc32eeU, 0xbe1c3978bd5d6ba8U,
  0xbdbfe5d6bcb122edU, 0xbe075003bdf605d8U, 0xbcbafa333ddaf5d7U, 0xbc7fdd1e3d1888beU,
  0xbda74ba7bca74ba7U, 0x3db60e903dcea8bfU, 0xbe04da32bc09c5d5U, 0xbca74ba7bdd60a34U,
  0xbdbafa33bd7fdd1eU, 0xbdc9bd1c3c3122edU, 0xbd826460bddaf5d7U, 0x3d5d6ba8be0b00beU,
  0xbb9d7461bc09c5d5U, 0x3c3122edbe075003U, 0xbdaead1cbdaead1cU, 0x3c9d74613dd88005U,
  0xbddfe17abd875003U, 0xbddd6ba83d7af17bU, 0x3de4cd1d3d7af17bU, 0xbd84da32bddd6ba8U,
  0x3da4d5d6bd875003U, 0xbd2c374abda26004U, 0xbd49bd1c3d62574bU, 0xbda260043e012978U,
  0x3dd39462bdc4d179U, 0xbdbd70053d4ea8bfU, 0x3d3fe5d63d7fdd1eU, 0x3d588005bdb122edU,
  0x3d3b2e1cU, 0xbdf04c7d3d8b1ecfU, 0x3dbdb5a63d1cd39aU, 0x3e0eea1f3d089744U,
  0x3d310ff03d8b1ecfU, 0xbb72d408bd68b5ddU, 0x3cac00dbbcd47987U, 0x3cc03d31bddc1027U,
  0x3da1e2b03c4a5b5cU, 0x3e04cbf43d547987U, 0x3cfcf233bdc7d3d1U, 0xbde8b5ddbde11f3dU,
  0xbc8da65a3da46a3bU, 0xbd547987bbca5b5cU, 0x3ba1e2b03d12b570U, 0xbd63a6c8bdd70112U,
  0x3d59889cbd1cd39aU, 0xbd7cf233bc8da65aU, 0x3d92b570bcfcf233U, 0xbc361f063cf2d408U,
  0x3dcce2e7bd6dc4f2U, 0x3de3a6c8be03882fU, 0x3d860fba3dc2c4bcU, 0x3dd70112bdedc4f2U,
  0x3d8897443cb61f06U, 0xbd0da65a3db61f06U, 0x3b21e2b03d03882fU, 0x3dfa6aa8be0eea1fU,
  0x3db61f06bd83882fU, 0xbd5e97b23ce8b5ddU, 0xbdc03d313d953cfaU, 0xbe209eebbdf2d408U,
  0x3ba4cd51baa4cd51U, 0x3df9c72f3cf733faU, 0xbd00c0673d92c6dcU, 0x3d8b0d3c3de52d85U,
  0xbcf733fabd8b0d3cU, 0x3cf733fa3cce00a5U, 0x3dac86f13d3966fbU, 0xbe2383b6bddd73e5U,
  0xbddd73e5bd9a807cU, 0x3dc1209b3e1033a7U, 0xbcece7243aa4cd51U, 0x3d1033a73e1d13b1U,
  0xbcaf1a263d584d7aU, 0xbdbe8d663e00c067U, 0xbddae0b03c9033a7U, 0x3d83539dbde29a4fU,
  0x3dbbfa303de0071aU, 0xbdb1ad5b3ca4cd51U, 0x3dd093db3e0c56d7U, 0xbd155a11bd629a4fU,
  0xbd3440913c9033a7U, 0xbda23a1c3d9033a7U, 0x3dd5ba45be05e6d2U, 0xbcc3b3d03d43b3d0U,
  0x3de52d853d3966fbU, 0x3ba4cd513dfeed99U, 0x3ddd73e53e087a07U, 0x3d1fa6e63d48da3bU,
  0xbd97ed473df20d8fU, 0xbdbbfa303dfeed99U, 0x3d1fa6e6bd9d13b1U, 0xbd6ce724bd00c067U,
  0x3dfcfcbfbdd211deU, 0xbcabab8100000000U, 0x3dabab81bcd8d8a4U, 0xbdd69662bc7cfcbfU,
  0xbd2726febd80c0a1U, 0x3d7cfcbfbc34b488U, 0xbe00c0a13d0c0beaU, 0x3d199974be00c0a1U,
  0xbd1e1df7bdbb7b4dU, 0xbcbdbd8f3e078766U, 0xbcb4b488bda06039U, 0x3ca2a27bbc58d8a4U,
  0xbde1e1aabdb27247U, 0x3c878766bdef6f35U, 0x3d4242123d58d8a4U, 0xbda4e4bc3ddf9f69U,
  0x3e0302e33cb4b488U, 0x3dabab81bc58d8a4U, 0x3d90906d3deaeab1U, 0x3df8783b3d6aeab1U,
  0xbc999974bd078766U, 0x3d80c0a1bd9514f0U, 0x3dfaba7dbd73f3b8U, 0xbc6aeab1bceaeab1U,
  0x3bb4b4883c46c696U, 0x3df8783bbdc24212U, 0xbe0f6f4c3b10906dU, 0x3e078766ba90906dU,
  0xbdc484543d22a27bU, 0x3c90906dbdb6f6caU, 0x3ce1e1aa3d89c9a8U, 0x3c999974bc999974U,
  0xba922b6b3d122b6bU, 0x3c48fbb33dc8fbb3U, 0xbd990574be07e45dU, 0x3d8fe2bd3cc8fbb3U,
  0x3cbfd8fcbd2d938fU, 0xbd96bcc63d8908b4U, 0x3dcd8d0e3dd46717U, 0x3d6463d73de21b2aU,
  0x3e010a543d96bcc6U, 0x3d6d868e3bffcbfbU, 0x3ddd89ce3d48fbb3U, 0xbc922b6bbd5b4120U,
  0x3bffcbfbbd0d9a10U, 0x3c48fbb3bd1b4e22U, 0xbdcb4461bda2282bU, 0x3d3fd8fc3dc46a58U,
  0xbd2d938fbd446a58U, 0x3d947419bda90234U, 0x3ced868ebd7b3aa0U, 0xbc922b6bbe06c007U,
  0x3cad938fbcdb4120U, 0x3ddd89cebdf8f1f2U, 0xbdfb3aa03dad938fU, 0xbdc221aa3d7b3aa0U,
  0xbc9b4e22bdc221aaU, 0x3cd21e6abc9b4e22U, 0xbc6d868ebd047759U, 0x3d3224ea3d9d96cfU,
  0xbe1107143bb6b646U, 0xbbdb41203e022eabU, 0x3bdb4120bda90234U, 0x3db6b6463d96bcc6U,
  0xbdfd24b7bd80f5b9U, 0x3d6a09cb3d56eedfU, 0x3dc170963da264d6U, 0x3df39741bd0f49eaU,
  0x3d1410a5bdfac15aU, 0xbd8a832fbcdbb59aU, 0x3b654310bd272b91U, 0xbdfac15a3cbf0d38U,
  0xbd272b913de2dfb2U, 0x3c2bf24cbdb0b907U, 0xbdb31c643cf85dfcU, 0x3d9b3abe3d835916U,
  0x3d2264d63bbf0d38U, 0xbc18d760bca264d6U, 0xbc785dfc3c05bc74U, 0x3cc89aaebd43d3f3U,
  0x3d357fc23cc89aaeU, 0xbe022768bcb57fc2U, 0xbda264d63cabf24cU, 0xbbe54310bd272b91U,
  0xbe05bc74bc654310U, 0x3d7d24b73d272b91U, 0xbdec6d283d91ad48U, 0xbc785dfcbd98d760U,
  0xbce543103c785dfcU, 0xbd5bb59a3b18d760U, 0xbdfd24b7bdbf0d38U, 0x3d607c55bda264d6U,
  0xbd91ad483d91ad48U, 0x3e17a5b13dbca9daU, 0x3d5bb59abd85bc74U, 0x3c98d7603dec6d28U,
  0xbd8d4356bd5953e6U, 0xbd2ddcb83c8d4356U, 0x3d0d43563df9ed48U, 0x3cef0f7d3d92b23bU,
  0x3dc64fc2bcce761aU, 0x3def0f7d3d8ffac8U, 0x3dc0e0dc3d9569aeU, 0x3d851cfdbcc3984fU,
  0xbdc64fc23d0d4356U, 0xbdc907353aaddcb8U, 0x3d5ec2ccbd0d4356U, 0xbd0d4356bc982121U,
  0xbe07d4703d12b23bU, 0xbdef0f7d3e02658aU, 0x3dbe29693d851cfdU, 0x3d182121bc43984fU,
  0x3aaddcb83df1c6f0U, 0x3e2c80ffbd490735U, 0x3d8d4356be03c143U, 0xbe0a8be33d9ad894U,
  0x3de9a097bd8d4356U, 0x3c8d4356bde17a3fU, 0xbde431b2bdd3e500U, 0xbd5ec2cc3def0f7dU,
  0xbcf9ed483e03c143U, 0x3dfca4bbbd07d470U, 0xbd4907353da86dd2U, 0xbde17a3f3dd3e500U,
  0x3dd69c733e0678b6U, 0x3c2ddcb83d79ed48U, 0x3db0942b3de17a3fU, 0x3de17a3f3e0be79cU,
  0xbdb30e683df1f7cbU, 0x3d5017a9bdcdac39U, 0xbdcb40c9bd89ebf6U, 0xbc1adc07bd960527U,
  0xbc9adc073ca489c7U, 0xbb684a0abd851516U, 0x3def8c5bbd419309U, 0x3ddc30da3d5017a9U,
  0xbdabcc183d160527U, 0xbdf1f7cb3de5de9aU, 0xbb684a0abdd759faU, 0x3c7ba58b3d1fb2e7U,
  0x3d37e5483d1fb2e7U, 0x3de5de9abccb40c9U, 0x3be84a0abd76ceabU, 0x3e0780863c878086U,
  0xbd59c56abc419309U, 0x3cae3788bd59c56aU, 0x3d2960a8bdb0a2f8U, 0xbdb7e548bd330e68U,
  0x3d02a9a6bdbcbc29U, 0xbd71f7cb3dd2831aU, 0x3d1adc07bcc19309U, 0xbddc30da3d330e68U,
  0xbe0515163ccb40c9U, 0xbbc19309bdf6ceabU, 0xbe19a64fbdabcc18U, 0x3d3cbc29bdc3fe79U,
  0x3c54ee8a3d684a0aU, 0x3db579d83db0a2f8U, 0x3c078086bd078086U, 0xbc54ee8a3db0a2f8U,
  0xbd9f14d53dfe045cU, 0x3dbb4e343da1a5afU, 0xbd3ddf0ebce1cafcU, 0xbe22ee1cbd19f320U,
  0xbd2436893d339ba6U, 0x3d9240923d6c0e65U, 0x3dc5919dbd2e79f2U, 0x3d5265e0be176246U,
  0xbdb62c80bdf651ceU, 0xbcb8bd5a3d4300c3U, 0xbd6c0e65bdcd442bU, 0xbe0fafb8be004a9bU,
  0x3aa43689bc61cafcU, 0x3dc06fe93dc5919dU, 0x3d61cafcbe1388ffU, 0xbdcab3513dcfd505U,
  0x3d4300c3bd7651ceU, 0xbe0e674b3c38bd5aU, 0xbd94d16cbd19f320U, 0xbd856c4f3d19f320U,
  0xbb7651ce3da6c763U, 0xbc856c4fbda9583dU, 0x3d856c4fbd4d442bU, 0xbdcab3513c4d442bU,
  0x3d004a9bbaa43689U, 0x3d976246bccd442bU, 0xbd804a9bbbcd442bU, 0x3dc06fe9bd94d16cU,
  0x3df3c0f3bd5ca948U, 0xbdf3c0f33ba43689U, 0x3dd78794bcb8bd5aU, 0x3d804a9b3bcd442bU,
  0xbd9e33413db5ee24U, 0x3dfd1ece3dbb341eU, 0x3c9e3341bdc5c011U, 0xbdb891213dd04c04U,
  0x3aa8bf34bd891b5aU, 0x3cc8630ebcf292dbU, 0x3da0d63ebe0a6cd9U, 0xbe18ed473e091b5aU,
  0x3d1e33413cc8630eU, 0xbdcb060b3bfd1eceU, 0xbdf292db3dae052eU, 0x3dd834fb3dc31d14U,
  0xbd5834fb3deaa9e4U, 0x3d7d1ece3da0d63eU, 0x3df292db3e1b9044U, 0xbc52ef013dcb060bU,
  0xbd77d8d43df535d8U, 0xbd13a74e3cc8630eU, 0x3da8bf343c3dd71aU, 0x3df7d8d4bded4ce1U,
  0x3dcb060b3da8bf34U, 0xbcf292db3e276db6U, 0x3c3dd71abd910451U, 0x3d3dd71abe03d561U,
  0x3d2e052e3dfa7bd1U, 0x3d93a74ebdc31d14U, 0x3d9e3341bc9e3341U, 0xbde563eb3e06785dU,
  0x3df535d8bd6806e8U, 0x3d13a74ebd389121U, 0x3ce806e8bda0d63eU, 0x3cbdd71abd431d14U,
  0xbdcd2f18bc3a87e8U, 0x3d7727463ce929e1U, 0xbc8292553c153986U, 0x3e003d6fbc4d2f18U,
  0xbd6480153b5fd649U, 0x3da7e0b7bc727d7aU, 0x3da58bd1be0f6547U, 0xbd873c213daa359dU,
  0xbdeb7ec7bd772746U, 0x3d073c21bd978e6cU, 0xbdedd3ae3d108fbaU, 0x3dcf83fe3d9e8d1eU,
  0x3dd682b1bc27e0b7U, 0x3d84e73b3d3f31b4U, 0x3e140f133d908fbaU, 0x3c829255bca7e0b7U,
  0x3c8be5ee3dc1869aU, 0xbd073c213d899108U, 0xbd7727463de6d4fbU, 0xbd31344fbd899108U,
  0xbcfbd112bc9e8d1eU, 0x3db83301bdd8d797U, 0x3df028943e0e3ad4U, 0xbdcf83febd5fd649U,
  0xbdd682b13d99e352U, 0x3c029255bd073c21U, 0xbe0292553e0167e2U, 0xbdaedf693d5b2c7dU,
  0xbde48015bbba87e8U, 0xbdedd3aebc727d7aU, 0x3deb7ec7bdb1344fU, 0xbc4d2f18bd99e352U,
  0xbba7567f3d07f647U, 0xbcdba187bdb46941U, 0x3d9a43bd3d6b51a3U, 0x3c7b01bebd926bafU,
  0x3d82bb933c6616efU, 0xbcb1cbe7be0fce55U, 0xbcdba1873d27567fU, 0x3dd12c1f3d82bb93U,
  0xbb7b01be3daf2e8dU, 0xbe0be24ebe2607d2U, 0xbda4b9253d02bb93U, 0xbd3c414f3c6616efU,
  0xbde0dc3b3dbc414fU, 0xbcdba187bda4b925U, 0x3d512c1f3d8d30fbU, 0x3dedeefdbdf5c70bU,
  0xbcc6b6b73aa7567fU, 0x3d37069bbdcbf16bU, 0xbd17a663bd37069bU, 0x3dc17c03bd417c03U,
  0xbdf864653db9a3f5U, 0x3ca7567f3da7567fU, 0x3df5c70b3d82bb93U, 0x3d3c414fbde0dc3bU,
  0x3d126baf3d17a663U, 0xbdd9042d3d31cbe7U, 0x3da9f3d93d27567fU, 0xbdb9a3f5be1657b6U,
  0xbcd12c1fbddba187U, 0x3d1ce117bddba187U, 0xbda4b925bd126bafU, 0xbdd3c979bd126bafU,
  0x3df99f83bce1774dU, 0xbd4bfe39bd210c12U, 0x3dc141b03ca10c12U, 0x3ddec82a3e18feabU,
  0xbde4266f3d0634baU, 0x3b80d675bca10c12U, 0x3d0634ba00000000U, 0xbdcead5cbca10c12U,
  0xbd0634babd71921bU, 0x3ddc1908bd3be36bU, 0x3dec33d63dec33d6U, 0x3e17a71a3db68526U,
  0xbda3bb35bdbe928dU, 0x3d88e3dcbd3be36bU, 0xbd3be36bbde6d592U, 0xbdfefdc83c6c33d6U,
  0x3e0f99b23cb68526U, 0x3ca10c123e00d675U, 0xbdbbe36bbd9e5cf0U, 0x3da9197a3d4bfe39U,
  0x3e1badcd3d964f88U, 0x3dc69ff43e2a710bU, 0xbc4141b03e1248d5U, 0xbd3685263c56bac3U,
  0xbc164f88bd7c4ea5U, 0x3d8634ba3dfc4ea5U, 0xbd66d592bdb3d603U, 0xbdcead5cbd8b92ffU,
  0x3c80d675bcf6f060U, 0xbd0b92ff3dae77beU, 0x3cabc89cbc964f88U, 0x3d90f1443cf6f060U,
  0x3dbf082e3df69083U, 0x3d830e8bbd9b7dbaU, 0x3cefe68d3db85e38U, 0xbd9b7dbabc1fef09U,
  0x3da46057bdc5b224U, 0x3d129b1dbd929b1dU, 0xbe0d0d7bbe0ad4d4U, 0x3a8e29cfbd970c6cU,
  0x3dbccf87bdedade6U, 0xbd8e29cfbdb85e38U, 0xbc553eb6bdd0cd68U, 0xbdf21f353d929b1dU,
  0xbd94d3c5be09b881U, 0x3e01f237bdbccf87U, 0xbd877fd93ddbe8acU, 0xbd129b1d3d78c92aU,
  0x3bb1b443ba8e29cfU, 0x3d2d42f43bb1b443U, 0x3d1b7dbabddbe8acU, 0x3cefe68d3df8c92aU,
  0xbde93c98bd362591U, 0x3dbccf873c0e29cfU, 0xbce703f03d9db662U, 0xbd2460573df21f35U,
  0xbc6703f03dca2372U, 0x3d3f082ebe00d5e4U, 0xbd8e29cf3d50cd68U, 0xbdefe68d3d6fe68dU,
  0xbd854732bd6fe68dU, 0x3dc140d5bd929b1dU, 0x3ccc5c1a3dd3060fU, 0x3d6703f03dad42f4U,
  0x3cd80be03c85be35U, 0xbd9a51a03c9a51a0U, 0x3dd579723e00995aU, 0x3d4378753e05be35U,
  0xbd677a70bda208e8U, 0x3d0ae3103bf6e900U, 0x3ddd30ba3db409e5U, 0xbd00995a3d4dc22aU,
  0x3dd2e7053cb92ec0U, 0x3de77a703def31b8U, 0xbdbbc12d3c249b55U, 0x3d9007ea3d832bc8U,
  0x3d0ae310bde25595U, 0xbd8d757dbe115121U, 0x3df6e900bdd57972U, 0xbd85be353d00995aU,
  0xbd489d50bc85be35U, 0xbd9f767abe07076cU, 0x3d8d757d3c4dc22aU, 0xbc76e9003dc89d50U,
  0x3d29c0303cb92ec0U, 0x3db409e53daee50aU, 0x3c6255953d152cc5U, 0xbe1007eabe032bc8U,
  0x3ce25595be0ebeb4U, 0xbda208e8bd952cc5U, 0xbdcdc22a3c9007eaU, 0x3c392ec0bd8ae310U,
  0xbd832bc8bd29c030U, 0xbe23521ebdb17778U, 0x3cec9f4a3d76e900U, 0x3c85be353d952cc5U,
  0x3ddf5758bd2bcd09U, 0xbda335fcbd8fe21eU, 0xbcce293e3d8970d4U, 0x3cabcd09bdabcd09U,
  0x3c8970d4be085df2U, 0x3cc59231bc9207e1U, 0x3c5f57583c0970d4U, 0xbb0970d4bddb0bd2U,
  0x3d0970d43e00d9c7U, 0xbcdf57583bce293eU, 0xbe085df2bcabcd09U, 0xbd63a2dfbdcc037bU,
  0xbd8dbc5b3dfb4244U, 0xbc7085733dbcfb24U, 0x3e085df2bd05254dU, 0xbd2781823d74d0faU,
  0x3da55bbfbd38af9dU, 0xbdb23e53bd791c80U, 0xbc0970d43d85254dU, 0xbc5f57583e00d9c7U,
  0xbdf08573bc4e293eU, 0xbd2781823dbad560U, 0x3dc146aabdfd6807U, 0xbd82ff8a3d165368U,
  0xbdc146aa3cf08573U, 0xbddb0bd23d05254dU, 0x3df6f6bdbdb01890U, 0xbddd31953c9a9eeeU,
  0x3d459231bdb01890U, 0x3dbad5603dc7b7f4U, 0xbe04126cbdc59231U, 0xbdce293ebbce293eU,
  0x3cfb10b1bc48da28U, 0x3de1f56c3cc8da28U, 0xbd919e293d9ba912U, 0x3bf105c9bd25b3faU,
  0xbdaab96e3c20ae86U, 0xbc96a39ebc48da28U, 0xbde1f56c3d028dcdU, 0x3e1f6d29bd4ddf9cU,
  0x3dc6576dbd9420e4U, 0xbd760b3dbda33140U, 0xbde6fae13d800b13U, 0xbdec00553aa0ae86U,
  0xbd2ab96e3dbecf3fU, 0xbd828dcd3b20ae86U, 0xbc5ceff8bdc8da28U, 0xbd028dcd3d828dcdU,
  0xbe028dcd3cdceff8U, 0xbe0f1b6fbc20ae86U, 0xbda33140bd5ceff8U, 0x3d8f1b6fbcbecf3fU,
  0x3d119e293e03cf2aU, 0xbddceff83d3ecf3fU, 0x3e014c70bd760b3dU, 0xbda0ae86bd57ea84U,
  0xbd119e29bba0ae86U, 0x3de6fae1be014c70U, 0x3d9420e4bd7105c9U, 0x3d57ea843dd567caU,
  0xbd7105c9bdec0055U, 0x3d34c457bd20ae86U, 0x3c20ae863dd567caU, 0x3d1ba912bd992658U,
  0xbd650b4bbd01a5caU, 0x3da438663dfaa6edU, 0xbd8a4a713cc6cb02U, 0xbdd3c1fdbdc04f85U,
  0x3d996a95bdf20246U, 0xbde50b4bbdc04f85U, 0x3d312f61bd01a5caU, 0x3c8a4a713e01a5caU,
  0xbc81a5ca3c92ef18U, 0xbdfaa6ed3d695d9fU, 0xbe0935dcbce0b8f8U, 0x3d765499be05f81dU,
  0xbd9dbce9bdd198d3U, 0x3db581b4be01a5caU, 0x3d0e9cc5bd9dbce9U, 0x3cbe265bbd765499U,
  0x3db581b4bdbe265bU, 0x3d0e9cc5bcfaa6edU, 0xbdf87dc3bdacdd0dU, 0xbe02ba5fbdd81451U,
  0x3dd814513e05f81dU, 0xbcf202463cbe265bU, 0x3d4f6faabb4f6faaU, 0x3d243866bc8a4a71U,
  0xbd1b93bfbd720246U, 0x3ccf6faabe082147U, 0xbdfaa6ed3c81a5caU, 0xbd8e9cc5bd996a95U,
  0xbbcf6faa3de0b8f8U, 0x3d5814513da66190U, 0xbd92ef18be070cb2U, 0xba8a4a7100000000U,
  0xbe056492bde78cc4U, 0xbd947e733dcbdd54U, 0x3da61ca33d3a3f23U, 0x3dcbdd54bda39853U,
  0x3ddfffd4bdbf47c4U, 0xbd6c95643cb53683U, 0x3d6c9564bd211403U, 0xbd805bf2bd211403U,
  0xbe04226abdd872e4U, 0xbd8564923d4e61a4U, 0x3e133c4b3dbf47c4U, 0xbdbcc3743c8cf183U,
  0xbd2b25433dc45064U, 0xbcdd7b843ca11403U, 0x3d76a6a53dba3f23U, 0xbdc95904bde78cc4U,
  0x3d8564923d536a44U, 0x3aa11403bdf92af5U, 0x3c9702c33e019e1aU, 0xbdd36a44bdce61a4U,
  0x3e0f75d3bc211403U, 0xbd4450643da11403U, 0x3e0baf5bbd261ca3U, 0xbd8cf183bba11403U,
  0xbe02e042bba11403U, 0xbdc6d4b43dea1114U, 0x3e04226abdce61a4U, 0x3dc450643e1fd1dbU,
  0xbb2114033e06a6bbU, 0xbd82e042be056492U, 0xbdcbdd54bdc95904U, 0xbcdd7b84bd9e8fb3U,
  0x3cb0cf403dac281dU, 0x3dc36bcebdeaf87aU, 0xbdf8ede5bd5f56a2U, 0xbc8247debdbc7119U,
  0xbd22d9d63cdf56a2U, 0xbdffe89a3db57664U, 0x3dfd9508bdd16138U, 0x3cdf56a2bdccba14U,
  0x3c4cba14bd3a1d87U, 0x3d4cba14be06ef02U, 0xbdef9f9ebd9bdf21U, 0x3dac281dbc94e46cU,
  0xbe05c539be0371a7U, 0x3c8b9625be13baa3U, 0x3d9737fe3db0cf40U, 0xbd8247debd7b4176U,
  0xbd0b96253d769a53U, 0x3db322d2bd5f56a2U, 0x3d4cba14bcc36bceU, 0x3ded4c0c3db7c9f5U,
  0x3c3a1d873e05c539U, 0xbde1aa34bdeaf87aU, 0x3d0b9625bd7fe89aU, 0xbcba1d873c71f330U,
  0x3cb0cf40bddf56a2U, 0xbd56085bbc8b9625U, 0x3b94e46cbdc36bceU, 0x3d2780fabde3fdc5U,
  0x3e0818cbbdba1d87U, 0x3d86ef02bd903d49U, 0xbd8b9625bc14e46cU, 0xbdd85bedbd8b9625U,
  0xbc0c1ece3d7a3701U, 0x3df034cebc7034ceU, 0xbc8c1ece3ddc3068U, 0xbda5244ebd9b221aU,
  0xbd7f381bbc7034ceU, 0xbdf034ce3d2f2681U, 0xbdf034cebbf034ceU, 0x3cfa37013db928b4U,
  0xbd021c9abd5c3068U, 0x3c2023343d8e9f5aU, 0xbcf034ce3aa02334U, 0xbd9621013d8e9f5aU,
  0x3cfa37013c0c1eceU, 0xbd7034ce3daf2681U, 0xbc482c013dd22e34U, 0x3e071db43db6a827U,
  0x3d572f4ebd071db4U, 0x3cdc30683c482c01U, 0x3d432ae7bdd9afdbU, 0xbe021c9abd3e29ceU,
  0xbe1ee2ee3caa2567U, 0xbd482c01bd7a3701U, 0xbd899e413c7034ceU, 0x3dff381b3de3b20eU,
  0xbddeb0f43d7f381bU, 0xbd25244ebdfa3701U, 0x3caa2567bde8b328U, 0x3daf26813c5c3068U,
  0x3d93a0743df535e8U, 0xbd5c3068bde13181U, 0x3ba023343daf2681U, 0x3dd9afdbbd9b221aU,
  0x3cfa41c3bbd08c22U, 0xbdd85e31bd9f0474U, 0xbd8cc4febcfa41c3U, 0x3dcb556e3db3df44U,
  0xbda971dc3df26fb5U, 0xbdfcdd1dbc6566f3U, 0xbd2c0d363e03a543U, 0xbdaea890bb7a41c3U,
  0x3dd85e313dd3277dU, 0xbb7a41c33aa6d682U, 0xbd94970cbe14970cU, 0xbd26d6823c3bb152U,
  0x3dc38360bdc8ba14U, 0x3d26d6823ded3901U, 0xbdb143ea3e0b7751U, 0x3d2c0d363e04f2f0U,
  0xbc878e4a3d84f2f0U, 0x3d94970cbd6566f3U, 0xbd6a9da7bdb143eaU, 0xbd26d6823dc61ebaU,
  0xbd91fbb23ca6d682U, 0x3dc0e806bd11fbb2U, 0x3d367a9e3d94970cU, 0x3de566f3bda6d682U,
  0x3d8a29a4bc508c22U, 0x3d8a29a43df26fb5U, 0xbe06409d3c7a41c3U, 0x3d9c691abcb143eaU,
  0xbba6d6823d4b556eU, 0x3e2588d5bc9c691aU, 0xbe10ae05be0109e9U, 0xbcc61ebabd94970cU,
  0xbd41ddbdbdb90dd7U, 0x3d8f3254bd889668U, 0x3c95ce413c651d54U, 0xbdb6d9de3dcce19cU,
  0x3e042e75bc537d88U, 0x3cf6bd1fbdc645b0U, 0xbdd5b182bd5c4d6eU, 0x3d4aada33dcce19cU,
  0xbdb271ebbb0cfe5bU, 0xbdd5b1823e0be45eU, 0x3de7514dbde51d54U, 0xbd60b561bca76e0cU,
  0x3d1e9e263c9e9e26U, 0x3c651d54bd7f8d05U, 0xbc9e9e263dcf1596U, 0xbe06626f3d11664eU,
  0xbd939a473cb03df2U, 0x3da76e0c3d81fa7cU, 0x3d3d75cabdebb940U, 0x3dc645b0be042e75U,
  0x3c76bd1fbbb03df2U, 0xbdcf1596bc1e9e26U, 0xbd5c4d6e3dcf1596U, 0xbdd7e57b3d2bd5ffU,
  0xbdfb2512bda30619U, 0xbcdc4d6ebdbd75caU, 0xbd98023a3dde8168U, 0xbd41ddbdbdbfa9c4U,
  0xbe077c6bbdda1975U, 0xbde2e95abc651d54U, 0xbd4645b0bdc645b0U, 0xbca76e0cbe042e75U,
  0xbd0d2bcdbd5a9667U, 0x3e00a5dabe02ecc0U, 0x3ca3f0cdbe06571aU, 0x3ca3f0cd3daf534dU,
  0xbdd6089abd11b99aU, 0xbd8f72b43d3f439aU, 0x3de5f8e7bb11b99aU, 0x3e00a5da3bda9667U,
  0x3da87e9a3c91b99aU, 0xbd9d1c1abc362800U, 0x3d8410343d089e00U, 0x3e0e4f403da637b4U,
  0x3d988e4dbcda9667U, 0xbe02ecc0bdf8301aU, 0xbdaf534d3dc6184dU, 0xbb11b99a3d8f72b4U,
  0xbbda9667bd287e9aU, 0xbd940080bd56089aU, 0xbbb62800bc6ccd9aU, 0xbcad0c67bdc18a81U,
  0x3d089e003e109627U, 0xbd9647673e109627U, 0x3d988e4d3ce3b201U, 0x3dd84f813dd6089aU,
  0x3cc85f34be089e00U, 0xbd3f439a3deccd9aU, 0xbd8f72b43dbcfcb4U, 0x3dc6184dbd11b99aU,
  0xbd485f343e109627U, 0xbdff04cebc485f34U, 0xbd362800bd9d1c1aU, 0x3d9ad5343b11b99aU,
  0x3dfd7179bd892f54U, 0xbda5163e3bdf3750U, 0x3d7fc4b7be02359aU, 0xbd06dc16bc94cf8bU,
  0xbe010bfbbc4c9d5fU, 0xbddf37503c3a036eU, 0x3d27697c3dbea9eaU, 0xbdbc56acbd3ea9eaU,
  0xbc14cf8bbc5f3750U, 0x3d8b8292bdac0ff9U, 0x3dfb1e3bbd9bc946U, 0x3c94cf8bbd86dc16U,
  0xbddf37503cdf3750U, 0x3dd143dbbccc9d5fU, 0xbde88449bc4c9d5fU, 0x3d6d2ac63dae6337U,
  0x3d55ea583d892f54U, 0xbd8dd5d03ce88449U, 0xbd8b8292bd435066U, 0x3d63ddcd3bdf3750U,
  0x3e13a5ec3d47f6e3U, 0xbd71d142bd8dd5d0U, 0xbe0805b53d82359aU, 0xbdb55cf1be06dc16U,
  0x3d4c9d5fbdfb1e3bU, 0x3b94cf8bbdc35066U, 0x3d0b82923b94cf8bU, 0x3e10290f3d355cf1U,
